{
  "version": "1.0",
  "truncation": null,
  "padding": null,
  "added_tokens": [],
  "normalizer": null,
  "pre_tokenizer": {
    "type": "Whitespace"
  },
  "post_processor": null,
  "decoder": null,
  "model": {
    "type": "BPE",
    "dropout": null,
    "unk_token": null,
    "continuing_subword_prefix": null,
    "end_of_word_suffix": null,
    "fuse_unk": false,
    "byte_fallback": false,
    "ignore_merges": false,
    "vocab": {
      "!": 0,
      "#": 1,
      "$": 2,
      "%": 3,
      "&": 4,
      "'": 5,
      "(": 6,
      ")": 7,
      "*": 8,
      ",": 9,
      "-": 10,
      ".": 11,
      "/": 12,
      "0": 13,
      "1": 14,
      "2": 15,
      "3": 16,
      "4": 17,
      "5": 18,
      "6": 19,
      "7": 20,
      "8": 21,
      "9": 22,
      ":": 23,
      ";": 24,
      "?": 25,
      "A": 26,
      "B": 27,
      "C": 28,
      "D": 29,
      "E": 30,
      "F": 31,
      "G": 32,
      "H": 33,
      "I": 34,
      "J": 35,
      "K": 36,
      "L": 37,
      "M": 38,
      "N": 39,
      "O": 40,
      "P": 41,
      "Q": 42,
      "R": 43,
      "S": 44,
      "T": 45,
      "U": 46,
      "V": 47,
      "W": 48,
      "X": 49,
      "Y": 50,
      "Z": 51,
      "[": 52,
      "]": 53,
      "_": 54,
      "a": 55,
      "b": 56,
      "c": 57,
      "d": 58,
      "e": 59,
      "f": 60,
      "g": 61,
      "h": 62,
      "i": 63,
      "j": 64,
      "k": 65,
      "l": 66,
      "m": 67,
      "n": 68,
      "o": 69,
      "p": 70,
      "q": 71,
      "r": 72,
      "s": 73,
      "t": 74,
      "u": 75,
      "v": 76,
      "w": 77,
      "x": 78,
      "y": 79,
      "z": 80,
      "À": 81,
      "Æ": 82,
      "Ç": 83,
      "É": 84,
      "à": 85,
      "â": 86,
      "æ": 87,
      "ç": 88,
      "è": 89,
      "é": 90,
      "ê": 91,
      "ë": 92,
      "î": 93,
      "œ": 94,
      "—": 95,
      "‘": 96,
      "’": 97,
      "“": 98,
      "”": 99,
      "•": 100,
      "…": 101,
      "™": 102,
      "﻿": 103,
      "th": 104,
      "er": 105,
      "ou": 106,
      "in": 107,
      "an": 108,
      "the": 109,
      "or": 110,
      "is": 111,
      "en": 112,
      "ar": 113,
      "at": 114,
      "on": 115,
      "ll": 116,
      "es": 117,
      "and": 118,
      "to": 119,
      "he": 120,
      "st": 121,
      "me": 122,
      "you": 123,
      "no": 124,
      "of": 125,
      "re": 126,
      "ha": 127,
      "se": 128,
      "it": 129,
      "ve": 130,
      "ing": 131,
      "le": 132,
      "wi": 133,
      "be": 134,
      "ch": 135,
      "ce": 136,
      "as": 137,
      "ow": 138,
      "my": 139,
      "ed": 140,
      "hi": 141,
      "for": 142,
      "nd": 143,
      "ld": 144,
      "ay": 145,
      "ere": 146,
      "ir": 147,
      "ut": 148,
      "ro": 149,
      "Th": 150,
      "not": 151,
      "gh": 152,
      "li": 153,
      "de": 154,
      "we": 155,
      "that": 156,
      "ke": 157,
      "oo": 158,
      "with": 159,
      "And": 160,
      "our": 161,
      "ter": 162,
      "al": 163,
      "ri": 164,
      "us": 165,
      "so": 166,
      "wh": 167,
      "ad": 168,
      "ent": 169,
      "Wh": 170,
      "et": 171,
      "his": 172,
      "your": 173,
      "co": 174,
      "ra": 175,
      "thou": 176,
      "all": 177,
      "do": 178,
      "ther": 179,
      "un": 180,
      "ght": 181,
      "ur": 182,
      "him": 183,
      "ly": 184,
      "this": 185,
      "have": 186,
      "ver": 187,
      "lo": 188,
      "The": 189,
      "am": 190,
      "ti": 191,
      "ess": 192,
      "ord": 193,
      "ould": 194,
      "ain": 195,
      "fe": 196,
      "id": 197,
      "will": 198,
      "are": 199,
      "her": 200,
      "est": 201,
      "EN": 202,
      "ck": 203,
      "pe": 204,
      "ma": 205,
      "now": 206,
      "ood": 207,
      "sha": 208,
      "man": 209,
      "ne": 210,
      "AN": 211,
      "ge": 212,
      "thy": 213,
      "fa": 214,
      "one": 215,
      "su": 216,
      "end": 217,
      "US": 218,
      "ER": 219,
      "AR": 220,
      "but": 221,
      "IN": 222,
      "To": 223,
      "la": 224,
      "art": 225,
      "ard": 226,
      "thee": 227,
      "ru": 228,
      "sh": 229,
      "by": 230,
      "pr": 231,
      "shall": 232,
      "mor": 233,
      "ES": 234,
      "ill": 235,
      "rom": 236,
      "si": 237,
      "That": 238,
      "con": 239,
      "up": 240,
      "go": 241,
      "po": 242,
      "mo": 243,
      "ON": 244,
      "com": 245,
      "ant": 246,
      "ine": 247,
      "But": 248,
      "ho": 249,
      "En": 250,
      "sel": 251,
      "mu": 252,
      "ight": 253,
      "ion": 254,
      "te": 255,
      "ak": 256,
      "ST": 257,
      "qu": 258,
      "il": 259,
      "ous": 260,
      "ind": 261,
      "What": 262,
      "ct": 263,
      "own": 264,
      "bo": 265,
      "she": 266,
      "if": 267,
      "ble": 268,
      "OR": 269,
      "ers": 270,
      "lord": 271,
      "good": 272,
      "love": 273,
      "wor": 274,
      "out": 275,
      "hich": 276,
      "He": 277,
      "sa": 278,
      "ven": 279,
      "ong": 280,
      "from": 281,
      "was": 282,
      "ry": 283,
      "what": 284,
      "ast": 285,
      "For": 286,
      "bl": 287,
      "more": 288,
      "know": 289,
      "well": 290,
      "would": 291,
      "AL": 292,
      "Ex": 293,
      "them": 294,
      "ive": 295,
      "can": 296,
      "Enter": 297,
      "OL": 298,
      "ate": 299,
      "ap": 300,
      "let": 301,
      "their": 302,
      "come": 303,
      "self": 304,
      "see": 305,
      "ag": 306,
      "ie": 307,
      "ence": 308,
      "ep": 309,
      "they": 310,
      "there": 311,
      "ul": 312,
      "ath": 313,
      "like": 314,
      "than": 315,
      "ta": 316,
      "ome": 317,
      "_Ex": 318,
      "say": 319,
      "sir": 320,
      "ink": 321,
      "wo": 322,
      "then": 323,
      "mp": 324,
      "fore": 325,
      "LE": 326,
      "TH": 327,
      "IO": 328,
      "ure": 329,
      "here": 330,
      "You": 331,
      "ves": 332,
      "My": 333,
      "ish": 334,
      "No": 335,
      "If": 336,
      "ith": 337,
      "ance": 338,
      "We": 339,
      "ave": 340,
      "way": 341,
      "tru": 342,
      "ound": 343,
      "thing": 344,
      "hath": 345,
      "men": 346,
      "pro": 347,
      "EL": 348,
      "ING": 349,
      "sp": 350,
      "au": 351,
      "too": 352,
      "spe": 353,
      "ue": 354,
      "CH": 355,
      "reat": 356,
      "Be": 357,
      "should": 358,
      "did": 359,
      "may": 360,
      "dis": 361,
      "As": 362,
      "RO": 363,
      "who": 364,
      "were": 365,
      "ars": 366,
      "ook": 367,
      "make": 368,
      "ic": 369,
      "IA": 370,
      "row": 371,
      "which": 372,
      "some": 373,
      "upon": 374,
      "Go": 375,
      "must": 376,
      "KING": 377,
      "per": 378,
      "very": 379,
      "ity": 380,
      "ple": 381,
      "IR": 382,
      "mb": 383,
      "unt": 384,
      "In": 385,
      "had": 386,
      "ey": 387,
      "vi": 388,
      "oun": 389,
      "other": 390,
      "di": 391,
      "LO": 392,
      "IUS": 393,
      "word": 394,
      "ex": 395,
      "hand": 396,
      "So": 397,
      "heart": 398,
      "hon": 399,
      "such": 400,
      "day": 401,
      "think": 402,
      "off": 403,
      "Thou": 404,
      "tion": 405,
      "el": 406,
      "ame": 407,
      "This": 408,
      "when": 409,
      "ment": 410,
      "ci": 411,
      "time": 412,
      "yet": 413,
      "again": 414,
      "age": 415,
      "How": 416,
      "II": 417,
      "King": 418,
      "ene": 419,
      "af": 420,
      "swe": 421,
      "llow": 422,
      "ise": 423,
      "ac": 424,
      "Why": 425,
      "most": 426,
      "With": 427,
      "ang": 428,
      "ness": 429,
      "speak": 430,
      "pl": 431,
      "any": 432,
      "fo": 433,
      "bre": 434,
      "fri": 435,
      "urn": 436,
      "An": 437,
      "how": 438,
      "Who": 439,
      "mine": 440,
      "Of": 441,
      "ab": 442,
      "take": 443,
      "these": 444,
      "ans": 445,
      "give": 446,
      "father": 447,
      "ANT": 448,
      "des": 449,
      "mon": 450,
      "ady": 451,
      "night": 452,
      "tr": 453,
      "king": 454,
      "ARD": 455,
      "AM": 456,
      "ear": 457,
      "great": 458,
      "mar": 459,
      "ful": 460,
      "land": 461,
      "where": 462,
      "fair": 463,
      "hea": 464,
      "IC": 465,
      "ase": 466,
      "gra": 467,
      "ation": 468,
      "bro": 469,
      "eunt": 470,
      "It": 471,
      "tell": 472,
      "friend": 473,
      "ty": 474,
      "ince": 475,
      "ENE": 476,
      "gent": 477,
      "part": 478,
      "There": 479,
      "ESS": 480,
      "ort": 481,
      "ser": 482,
      "IL": 483,
      "much": 484,
      "ree": 485,
      "gn": 486,
      "ms": 487,
      "mer": 488,
      "str": 489,
      "Let": 490,
      "hear": 491,
      "look": 492,
      "LA": 493,
      "never": 494,
      "Come": 495,
      "Is": 496,
      "ace": 497,
      "ies": 498,
      "_Exeunt": 499,
      "mis": 500,
      "AT": 501,
      "sc": 502,
      "und": 503,
      "_Exit": 504,
      "Which": 505,
      "blood": 506,
      "ring": 507,
      "ull": 508,
      "Do": 509,
      "lt": 510,
      "ite": 511,
      "life": 512,
      "Where": 513,
      "less": 514,
      "ust": 515,
      "death": 516,
      "ret": 517,
      "red": 518,
      "SC": 519,
      "doth": 520,
      "UC": 521,
      "fl": 522,
      "honour": 523,
      "fi": 524,
      "tle": 525,
      "ET": 526,
      "RI": 527,
      "When": 528,
      "ever": 529,
      "ward": 530,
      "bet": 531,
      "gentle": 532,
      "By": 533,
      "son": 534,
      "tain": 535,
      "coun": 536,
      "oul": 537,
      "Sir": 538,
      "om": 539,
      "wr": 540,
      "ces": 541,
      "Or": 542,
      "ster": 543,
      "lie": 544,
      "hast": 545,
      "foo": 546,
      "old": 547,
      "ond": 548,
      "ass": 549,
      "pp": 550,
      "tis": 551,
      "ough": 552,
      "AC": 553,
      "io": 554,
      "Lord": 555,
      "Now": 556,
      "sed": 557,
      "cour": 558,
      "ice": 559,
      "stand": 560,
      "God": 561,
      "call": 562,
      "ach": 563,
      "ts": 564,
      "orn": 565,
      "fear": 566,
      "FF": 567,
      "SCENE": 568,
      "heaven": 569,
      "made": 570,
      "Sc": 571,
      "SE": 572,
      "Mar": 573,
      "tend": 574,
      "sweet": 575,
      "ouse": 576,
      "CA": 577,
      "true": 578,
      "new": 579,
      "che": 580,
      "eyes": 581,
      "PH": 582,
      "hold": 583,
      "mad": 584,
      "gu": 585,
      "AND": 586,
      "ving": 587,
      "head": 588,
      "rown": 589,
      "um": 590,
      "gl": 591,
      "cannot": 592,
      "pla": 593,
      "ED": 594,
      "FIR": 595,
      "FIRST": 596,
      "nor": 597,
      "uke": 598,
      "pri": 599,
      "vo": 600,
      "Here": 601,
      "ba": 602,
      "world": 603,
      "Then": 604,
      "war": 605,
      "UR": 606,
      "pray": 607,
      "res": 608,
      "led": 609,
      "tri": 610,
      "away": 611,
      "ted": 612,
      "live": 613,
      "TI": 614,
      "Scene": 615,
      "thought": 616,
      "pres": 617,
      "been": 618,
      "done": 619,
      "Your": 620,
      "long": 621,
      "QU": 622,
      "op": 623,
      "bear": 624,
      "Tis": 625,
      "name": 626,
      "DU": 627,
      "Ay": 628,
      "Fr": 629,
      "shi": 630,
      "fir": 631,
      "pre": 632,
      "fort": 633,
      "les": 634,
      "ds": 635,
      "two": 636,
      "tra": 637,
      "comes": 638,
      "down": 639,
      ".]": 640,
      "She": 641,
      "able": 642,
      "might": 643,
      "ks": 644,
      "ore": 645,
      "ower": 646,
      "ake": 647,
      "light": 648,
      "before": 649,
      "EM": 650,
      "set": 651,
      "brother": 652,
      "jo": 653,
      "ton": 654,
      "mber": 655,
      "ghter": 656,
      "dy": 657,
      "ign": 658,
      "They": 659,
      "put": 660,
      "Duke": 661,
      "house": 662,
      "noble": 663,
      "leave": 664,
      "ENT": 665,
      "deed": 666,
      "ss": 667,
      "ef": 668,
      "ten": 669,
      "im": 670,
      "atter": 671,
      "pur": 672,
      "Pr": 673,
      "ose": 674,
      "His": 675,
      "gr": 676,
      "use": 677,
      "thus": 678,
      "lady": 679,
      "ORD": 680,
      "ye": 681,
      "could": 682,
      "CE": 683,
      "Sha": 684,
      "fool": 685,
      "gi": 686,
      "ange": 687,
      "Ca": 688,
      "reas": 689,
      "poor": 690,
      "dead": 691,
      "CON": 692,
      "tent": 693,
      "cha": 694,
      "side": 695,
      "right": 696,
      "cau": 697,
      "show": 698,
      "je": 699,
      "better": 700,
      "being": 701,
      "wit": 702,
      "Well": 703,
      "soul": 704,
      "comp": 705,
      "keep": 706,
      "ings": 707,
      "wer": 708,
      "find": 709,
      "rest": 710,
      "ick": 711,
      "ese": 712,
      "ol": 713,
      "KE": 714,
      "lit": 715,
      "cl": 716,
      "atch": 717,
      "IS": 718,
      "ft": 719,
      "ild": 720,
      "ps": 721,
      "into": 722,
      "still": 723,
      "STA": 724,
      "dear": 725,
      "both": 726,
      "ction": 727,
      "under": 728,
      "full": 729,
      "cur": 730,
      "ors": 731,
      "Good": 732,
      "OF": 733,
      "bra": 734,
      "beg": 735,
      "Nor": 736,
      "master": 737,
      "nothing": 738,
      "many": 739,
      "Will": 740,
      "every": 741,
      "cy": 742,
      "char": 743,
      "MAR": 744,
      "une": 745,
      "ng": 746,
      "place": 747,
      "aughter": 748,
      "cause": 749,
      "whi": 750,
      "BER": 751,
      "kind": 752,
      "gri": 753,
      "fall": 754,
      "par": 755,
      "wife": 756,
      "Rome": 757,
      "nat": 758,
      "uck": 759,
      "tress": 760,
      "Ro": 761,
      "ins": 762,
      "die": 763,
      "kes": 764,
      "den": 765,
      "tal": 766,
      "tong": 767,
      "face": 768,
      "eye": 769,
      "read": 770,
      "till": 771,
      "myself": 772,
      "ours": 773,
      "Al": 774,
      "daughter": 775,
      "vant": 776,
      "RICH": 777,
      "Than": 778,
      "IAN": 779,
      "Nay": 780,
      "woman": 781,
      "reason": 782,
      "lp": 783,
      "RU": 784,
      "air": 785,
      "comm": 786,
      "Her": 787,
      "ield": 788,
      "young": 789,
      "RICHARD": 790,
      "its": 791,
      "though": 792,
      "little": 793,
      "ud": 794,
      "follow": 795,
      "har": 796,
      "those": 797,
      "HAM": 798,
      "Re": 799,
      "ire": 800,
      "Not": 801,
      "words": 802,
      "SS": 803,
      "pt": 804,
      "LET": 805,
      "SECON": 806,
      "first": 807,
      "SECOND": 808,
      "ought": 809,
      "eng": 810,
      "INE": 811,
      "RY": 812,
      "best": 813,
      "ff": 814,
      "ison": 815,
      "BE": 816,
      "EEN": 817,
      "der": 818,
      "ius": 819,
      "after": 820,
      "raw": 821,
      "Shall": 822,
      "Jo": 823,
      "ither": 824,
      "sent": 825,
      "wel": 826,
      "gar": 827,
      "ning": 828,
      "vil": 829,
      "med": 830,
      "em": 831,
      "kill": 832,
      "bid": 833,
      "bring": 834,
      "ber": 835,
      "gone": 836,
      "QUEEN": 837,
      "boy": 838,
      "mind": 839,
      "esar": 840,
      "friends": 841,
      "sle": 842,
      "himself": 843,
      "STAFF": 844,
      "mother": 845,
      "MAN": 846,
      "UL": 847,
      "thine": 848,
      "_A": 849,
      "vir": 850,
      "bed": 851,
      "Yet": 852,
      "ench": 853,
      "forth": 854,
      "play": 855,
      "FAL": 856,
      "FALSTAFF": 857,
      "WN": 858,
      "against": 859,
      "ran": 860,
      "Caesar": 861,
      ".—": 862,
      "Have": 863,
      "DUKE": 864,
      "ship": 865,
      "conf": 866,
      "At": 867,
      "Pro": 868,
      "sand": 869,
      "clo": 870,
      "uty": 871,
      "lack": 872,
      "iness": 873,
      "Thy": 874,
      "grace": 875,
      "IV": 876,
      "LUC": 877,
      "none": 878,
      "band": 879,
      "ech": 880,
      "sor": 881,
      "AG": 882,
      "ian": 883,
      "present": 884,
      "TER": 885,
      "hor": 886,
      "assi": 887,
      "TUS": 888,
      "tongue": 889,
      "All": 890,
      "RIN": 891,
      "cle": 892,
      "stay": 893,
      "ctor": 894,
      "aster": 895,
      "temp": 896,
      "spir": 897,
      "thr": 898,
      "answer": 899,
      "ICK": 900,
      "ROS": 901,
      "sure": 902,
      "law": 903,
      "hus": 904,
      "turn": 905,
      "esty": 906,
      "BA": 907,
      "OTH": 908,
      "far": 909,
      "please": 910,
      "ID": 911,
      "ved": 912,
      "whose": 913,
      "Ar": 914,
      "ark": 915,
      "oud": 916,
      "fellow": 917,
      "lay": 918,
      "run": 919,
      "iss": 920,
      "roy": 921,
      "same": 922,
      "ANTON": 923,
      "St": 924,
      "bus": 925,
      "mean": 926,
      "Our": 927,
      "once": 928,
      "mes": 929,
      "vill": 930,
      "Un": 931,
      "car": 932,
      "else": 933,
      "back": 934,
      "ition": 935,
      "child": 936,
      "high": 937,
      "RESS": 938,
      "peace": 939,
      "said": 940,
      "OST": 941,
      "get": 942,
      "over": 943,
      "France": 944,
      "need": 945,
      "another": 946,
      "pos": 947,
      "ious": 948,
      "pra": 949,
      "ldi": 950,
      "que": 951,
      "pleas": 952,
      "rep": 953,
      "GO": 954,
      "UN": 955,
      "sub": 956,
      "PRIN": 957,
      "igh": 958,
      "unto": 959,
      "wrong": 960,
      "fal": 961,
      "meet": 962,
      "just": 963,
      "has": 964,
      "crown": 965,
      "hed": 966,
      "vice": 967,
      "br": 968,
      "hope": 969,
      "faith": 970,
      "sm": 971,
      "enter": 972,
      "III": 973,
      "about": 974,
      "ceive": 975,
      "lau": 976,
      "letter": 977,
      "Anton": 978,
      "IST": 979,
      "count": 980,
      "kn": 981,
      "ister": 982,
      "HEN": 983,
      "LES": 984,
      "sto": 985,
      "ati": 986,
      "HENRY": 987,
      "From": 988,
      "min": 989,
      "heard": 990,
      "husband": 991,
      "gain": 992,
      "matter": 993,
      "last": 994,
      "Se": 995,
      "Up": 996,
      "Ri": 997,
      "ste": 998,
      "hither": 999,
      "dou": 1000,
      "maid": 1001,
      "earth": 1002,
      "CI": 1003,
      "CLO": 1004,
      ",—": 1005,
      "ban": 1006,
      "power": 1007,
      "ried": 1008,
      "morrow": 1009,
      "joy": 1010,
      "_Aside": 1011,
      "wind": 1012,
      "race": 1013,
      "selves": 1014,
      "ACT": 1015,
      "ost": 1016,
      "reme": 1017,
      "bea": 1018,
      "arewell": 1019,
      "pose": 1020,
      "ject": 1021,
      "ary": 1022,
      "happ": 1023,
      "even": 1024,
      "near": 1025,
      "home": 1026,
      "bu": 1027,
      "sword": 1028,
      "vis": 1029,
      "three": 1030,
      "shame": 1031,
      "du": 1032,
      "vy": 1033,
      "court": 1034,
      "hour": 1035,
      "thousand": 1036,
      "came": 1037,
      "whom": 1038,
      "sleep": 1039,
      "cess": 1040,
      "indeed": 1041,
      "MON": 1042,
      "ouch": 1043,
      "false": 1044,
      "sen": 1045,
      "draw": 1046,
      "ons": 1047,
      "ury": 1048,
      "HAMLET": 1049,
      "va": 1050,
      "virt": 1051,
      "Lu": 1052,
      "On": 1053,
      "dost": 1054,
      "BO": 1055,
      "aint": 1056,
      "ROM": 1057,
      "Are": 1058,
      "cer": 1059,
      "hence": 1060,
      "ates": 1061,
      "state": 1062,
      "gods": 1063,
      "nature": 1064,
      "Br": 1065,
      "cut": 1066,
      "int": 1067,
      "within": 1068,
      "truth": 1069,
      "anger": 1070,
      "pa": 1071,
      "lies": 1072,
      "RA": 1073,
      "imp": 1074,
      "sing": 1075,
      "body": 1076,
      "gold": 1077,
      "therefore": 1078,
      "Upon": 1079,
      "Give": 1080,
      "fect": 1081,
      "makes": 1082,
      "villain": 1083,
      "Rich": 1084,
      "cious": 1085,
      "thank": 1086,
      "gen": 1087,
      "stri": 1088,
      "lords": 1089,
      "break": 1090,
      "hn": 1091,
      "gre": 1092,
      "rant": 1093,
      "lf": 1094,
      "vent": 1095,
      "oft": 1096,
      "ardon": 1097,
      "worth": 1098,
      "madam": 1099,
      "John": 1100,
      "sun": 1101,
      "hands": 1102,
      "wick": 1103,
      "De": 1104,
      "Ed": 1105,
      "Some": 1106,
      "things": 1107,
      "Master": 1108,
      "Su": 1109,
      "cap": 1110,
      "youth": 1111,
      "PER": 1112,
      "spo": 1113,
      "xt": 1114,
      "pect": 1115,
      "Eng": 1116,
      "fight": 1117,
      "ousin": 1118,
      "RE": 1119,
      "ery": 1120,
      "help": 1121,
      "ESTER": 1122,
      "SH": 1123,
      "seen": 1124,
      "England": 1125,
      "ork": 1126,
      "tears": 1127,
      "Que": 1128,
      "pi": 1129,
      "fire": 1130,
      "Look": 1131,
      "cre": 1132,
      "hang": 1133,
      "sound": 1134,
      "want": 1135,
      "OM": 1136,
      "times": 1137,
      "news": 1138,
      "ls": 1139,
      "ob": 1140,
      "Queen": 1141,
      "without": 1142,
      "ELLO": 1143,
      "GAR": 1144,
      "rem": 1145,
      "grief": 1146,
      "Po": 1147,
      "wish": 1148,
      "Would": 1149,
      "ows": 1150,
      "LORD": 1151,
      "_To": 1152,
      "enough": 1153,
      "does": 1154,
      "shalt": 1155,
      "BETH": 1156,
      "ken": 1157,
      "ph": 1158,
      "Le": 1159,
      "tak": 1160,
      "form": 1161,
      "gentleman": 1162,
      "while": 1163,
      "York": 1164,
      "soldi": 1165,
      "strong": 1166,
      "bt": 1167,
      "kiss": 1168,
      "Gl": 1169,
      "mi": 1170,
      "swear": 1171,
      "CLOWN": 1172,
      "DO": 1173,
      "pen": 1174,
      "ween": 1175,
      "ze": 1176,
      "gether": 1177,
      "mistress": 1178,
      "weep": 1179,
      "got": 1180,
      "queen": 1181,
      "BEL": 1182,
      "Did": 1183,
      "ask": 1184,
      "rather": 1185,
      "Therefore": 1186,
      "PRINCE": 1187,
      "since": 1188,
      "ist": 1189,
      "sea": 1190,
      "prison": 1191,
      "Hath": 1192,
      "pal": 1193,
      "why": 1194,
      "faul": 1195,
      "honest": 1196,
      "through": 1197,
      ".”": 1198,
      "breath": 1199,
      "bri": 1200,
      "care": 1201,
      "arms": 1202,
      "devil": 1203,
      "appe": 1204,
      "arm": 1205,
      "TE": 1206,
      "These": 1207,
      "cks": 1208,
      "Before": 1209,
      "MAC": 1210,
      "bes": 1211,
      "mus": 1212,
      "saw": 1213,
      "Even": 1214,
      "Hen": 1215,
      "TES": 1216,
      "ide": 1217,
      "lar": 1218,
      "ather": 1219,
      "ner": 1220,
      "went": 1221,
      "prove": 1222,
      "welcome": 1223,
      "sl": 1224,
      "stru": 1225,
      "half": 1226,
      "Henry": 1227,
      "cousin": 1228,
      "fit": 1229,
      "horse": 1230,
      "dr": 1231,
      "ats": 1232,
      "together": 1233,
      "ready": 1234,
      "cester": 1235,
      "Con": 1236,
      "IM": 1237,
      "Li": 1238,
      "sorrow": 1239,
      "Pe": 1240,
      "AU": 1241,
      "BRU": 1242,
      "pain": 1243,
      "pati": 1244,
      "seem": 1245,
      "LEON": 1246,
      "BRUTUS": 1247,
      "May": 1248,
      "bar": 1249,
      "bit": 1250,
      "Prince": 1251,
      "OB": 1252,
      "OP": 1253,
      "ged": 1254,
      "ets": 1255,
      "lost": 1256,
      "strange": 1257,
      "command": 1258,
      "vers": 1259,
      "Sh": 1260,
      "yourself": 1261,
      "beauty": 1262,
      "SIR": 1263,
      "grow": 1264,
      "only": 1265,
      "means": 1266,
      "room": 1267,
      "fortune": 1268,
      "Lo": 1269,
      "hard": 1270,
      "wa": 1271,
      "ned": 1272,
      "stra": 1273,
      "force": 1274,
      "wear": 1275,
      "content": 1276,
      "ched": 1277,
      "spirit": 1278,
      "send": 1279,
      "ory": 1280,
      "ERV": 1281,
      "ments": 1282,
      "Can": 1283,
      "jesty": 1284,
      "late": 1285,
      "sick": 1286,
      "ants": 1287,
      "ROSAL": 1288,
      "OTHELLO": 1289,
      "wise": 1290,
      "Antony": 1291,
      "ting": 1292,
      "stre": 1293,
      "work": 1294,
      "IOL": 1295,
      "SERV": 1296,
      "free": 1297,
      "mur": 1298,
      "tro": 1299,
      "eral": 1300,
      "tow": 1301,
      "lieve": 1302,
      "emp": 1303,
      "swor": 1304,
      "IAGO": 1305,
      "return": 1306,
      "cry": 1307,
      "fly": 1308,
      "foul": 1309,
      "ford": 1310,
      "ute": 1311,
      "prince": 1312,
      "Richard": 1313,
      "hum": 1314,
      "sin": 1315,
      "MIST": 1316,
      "inter": 1317,
      "ush": 1318,
      "thoughts": 1319,
      "MISTRESS": 1320,
      "cra": 1321,
      "pardon": 1322,
      "Whose": 1323,
      "Per": 1324,
      "dre": 1325,
      "ell": 1326,
      "ren": 1327,
      "cold": 1328,
      "sight": 1329,
      "cus": 1330,
      "deli": 1331,
      "oney": 1332,
      "CASS": 1333,
      "found": 1334,
      "left": 1335,
      "Grace": 1336,
      "DY": 1337,
      "attend": 1338,
      "alth": 1339,
      "yours": 1340,
      "country": 1341,
      "Glou": 1342,
      "cor": 1343,
      "prom": 1344,
      "pass": 1345,
      "Though": 1346,
      "Gloucester": 1347,
      "DEM": 1348,
      "GENT": 1349,
      "War": 1350,
      "onder": 1351,
      "GENTLE": 1352,
      "alone": 1353,
      "ANTONY": 1354,
      "field": 1355,
      "gs": 1356,
      "jud": 1357,
      "outh": 1358,
      "desire": 1359,
      "GLO": 1360,
      "dam": 1361,
      "cell": 1362,
      "oom": 1363,
      "UCESTER": 1364,
      "GLOUCESTER": 1365,
      "Ma": 1366,
      "told": 1367,
      "deser": 1368,
      "born": 1369,
      "gue": 1370,
      "itself": 1371,
      "worthy": 1372,
      "wat": 1373,
      "says": 1374,
      "royal": 1375,
      "EPH": 1376,
      "charge": 1377,
      "wilt": 1378,
      "rich": 1379,
      "cons": 1380,
      "business": 1381,
      "Till": 1382,
      "Was": 1383,
      "fer": 1384,
      "More": 1385,
      "PE": 1386,
      "cla": 1387,
      "pity": 1388,
      "THER": 1389,
      "COR": 1390,
      "each": 1391,
      "ople": 1392,
      "pers": 1393,
      "sad": 1394,
      "known": 1395,
      "ides": 1396,
      "sil": 1397,
      "bles": 1398,
      "aff": 1399,
      "proud": 1400,
      "talk": 1401,
      "Ti": 1402,
      "ceed": 1403,
      "course": 1404,
      "gainst": 1405,
      "Warwick": 1406,
      "aw": 1407,
      "gave": 1408,
      "kne": 1409,
      "Bo": 1410,
      "bat": 1411,
      "happy": 1412,
      "UM": 1413,
      "wall": 1414,
      "ished": 1415,
      "lead": 1416,
      "ANIO": 1417,
      "plain": 1418,
      "GENTLEMAN": 1419,
      "bour": 1420,
      "gro": 1421,
      "press": 1422,
      "eseech": 1423,
      "JUL": 1424,
      "pleasure": 1425,
      "certain": 1426,
      "sister": 1427,
      "people": 1428,
      "service": 1429,
      "Cassi": 1430,
      "ures": 1431,
      "venge": 1432,
      "ounds": 1433,
      "LAND": 1434,
      "YOR": 1435,
      "ling": 1436,
      "trust": 1437,
      "Mis": 1438,
      "ca": 1439,
      "cri": 1440,
      "lose": 1441,
      "Ha": 1442,
      "Take": 1443,
      "act": 1444,
      "oath": 1445,
      "common": 1446,
      "looks": 1447,
      "Spe": 1448,
      "vour": 1449,
      "itor": 1450,
      "dom": 1451,
      "haste": 1452,
      "cho": 1453,
      "French": 1454,
      "TR": 1455,
      "bir": 1456,
      "cal": 1457,
      "hate": 1458,
      "ub": 1459,
      "anc": 1460,
      "bloody": 1461,
      "La": 1462,
      "PRO": 1463,
      "Ser": 1464,
      "cent": 1465,
      "val": 1466,
      "lear": 1467,
      "DER": 1468,
      "FORD": 1469,
      "PAG": 1470,
      "sal": 1471,
      "YR": 1472,
      "sit": 1473,
      "loves": 1474,
      "seek": 1475,
      "thinks": 1476,
      "serve": 1477,
      "PAGE": 1478,
      "MEN": 1479,
      "quick": 1480,
      "days": 1481,
      "between": 1482,
      "Say": 1483,
      "VOL": 1484,
      "ORT": 1485,
      "Pray": 1486,
      "Like": 1487,
      "Fl": 1488,
      "Were": 1489,
      "fur": 1490,
      "uncle": 1491,
      "doubt": 1492,
      "DIO": 1493,
      "burn": 1494,
      "ron": 1495,
      "som": 1496,
      "Edward": 1497,
      "Yes": 1498,
      "thyself": 1499,
      "purpose": 1500,
      "MA": 1501,
      "ily": 1502,
      "tune": 1503,
      "ones": 1504,
      "soon": 1505,
      "LADY": 1506,
      "company": 1507,
      "TA": 1508,
      "ig": 1509,
      "ied": 1510,
      "col": 1511,
      "music": 1512,
      "ues": 1513,
      "Me": 1514,
      "sur": 1515,
      "suff": 1516,
      "mark": 1517,
      "Pal": 1518,
      "change": 1519,
      "ends": 1520,
      "Speak": 1521,
      "One": 1522,
      "sum": 1523,
      "sake": 1524,
      "foot": 1525,
      "MESS": 1526,
      "dare": 1527,
      "danger": 1528,
      "ump": 1529,
      "lives": 1530,
      "deep": 1531,
      "cond": 1532,
      "ques": 1533,
      "CLE": 1534,
      "IND": 1535,
      "beseech": 1536,
      "ris": 1537,
      "lic": 1538,
      "oose": 1539,
      "ief": 1540,
      "grave": 1541,
      "bound": 1542,
      "utus": 1543,
      "knows": 1544,
      "ses": 1545,
      "amp": 1546,
      "TIMON": 1547,
      "See": 1548,
      "Cap": 1549,
      "Most": 1550,
      "PAR": 1551,
      "PET": 1552,
      "ia": 1553,
      "low": 1554,
      "servant": 1555,
      "given": 1556,
      "Com": 1557,
      "comfort": 1558,
      ",”": 1559,
      "lan": 1560,
      "yield": 1561,
      "bell": 1562,
      "brought": 1563,
      "MACBETH": 1564,
      "drink": 1565,
      "murder": 1566,
      "dream": 1567,
      "Ano": 1568,
      "HEL": 1569,
      "dro": 1570,
      "unes": 1571,
      "fet": 1572,
      "vere": 1573,
      "ised": 1574,
      "lia": 1575,
      "INA": 1576,
      "INIUS": 1577,
      "others": 1578,
      "fol": 1579,
      "ATRA": 1580,
      "Brutus": 1581,
      "general": 1582,
      "OPATRA": 1583,
      "YORK": 1584,
      "CLEOPATRA": 1585,
      "DES": 1586,
      "GER": 1587,
      "USE": 1588,
      "further": 1589,
      "Mad": 1590,
      "SYR": 1591,
      "mouth": 1592,
      "pay": 1593,
      "vile": 1594,
      "ACUSE": 1595,
      "years": 1596,
      "MARGAR": 1597,
      "sworn": 1598,
      "Another": 1599,
      "SYRACUSE": 1600,
      "Farewell": 1601,
      "Whi": 1602,
      "dow": 1603,
      "ated": 1604,
      "rew": 1605,
      "fection": 1606,
      "suit": 1607,
      "OLK": 1608,
      "ANTI": 1609,
      "ILIA": 1610,
      "BAST": 1611,
      "black": 1612,
      "lad": 1613,
      "Thus": 1614,
      "holy": 1615,
      "bot": 1616,
      "gracious": 1617,
      "UNT": 1618,
      "ROSALIND": 1619,
      "Had": 1620,
      "len": 1621,
      "ELIA": 1622,
      "ICE": 1623,
      "JA": 1624,
      "ears": 1625,
      "writ": 1626,
      "warrant": 1627,
      "Alas": 1628,
      "MARGARET": 1629,
      "chance": 1630,
      "esseng": 1631,
      "sue": 1632,
      "bold": 1633,
      "open": 1634,
      "praise": 1635,
      "virtue": 1636,
      "Mistress": 1637,
      "LY": 1638,
      "past": 1639,
      "believe": 1640,
      "women": 1641,
      "took": 1642,
      "CHIO": 1643,
      "remember": 1644,
      "KA": 1645,
      "ZEN": 1646,
      "knight": 1647,
      "lips": 1648,
      "TIZEN": 1649,
      "brave": 1650,
      "CITIZEN": 1651,
      "IMO": 1652,
      "abo": 1653,
      "marry": 1654,
      "ground": 1655,
      "Tell": 1656,
      "eat": 1657,
      "money": 1658,
      "touch": 1659,
      "requ": 1660,
      "ENGER": 1661,
      "fast": 1662,
      "Marry": 1663,
      "MESSENGER": 1664,
      "WARD": 1665,
      "bor": 1666,
      "bury": 1667,
      "wal": 1668,
      "sign": 1669,
      "woe": 1670,
      "vereign": 1671,
      "folk": 1672,
      "WAR": 1673,
      "cro": 1674,
      "gall": 1675,
      "ras": 1676,
      "met": 1677,
      "ength": 1678,
      "SERVANT": 1679,
      "CO": 1680,
      "Lady": 1681,
      "sk": 1682,
      "fault": 1683,
      "JO": 1684,
      "Room": 1685,
      "pret": 1686,
      "def": 1687,
      "hot": 1688,
      "LEAR": 1689,
      "chee": 1690,
      "AS": 1691,
      "Tru": 1692,
      "ot": 1693,
      "sla": 1694,
      "sovereign": 1695,
      "prof": 1696,
      "mercy": 1697,
      "MER": 1698,
      "obe": 1699,
      "ANUS": 1700,
      "Page": 1701,
      "four": 1702,
      "hell": 1703,
      "beat": 1704,
      "goes": 1705,
      "ilt": 1706,
      "ices": 1707,
      "report": 1708,
      "Luci": 1709,
      "Madam": 1710,
      "DON": 1711,
      "Make": 1712,
      "POL": 1713,
      "PAND": 1714,
      "Since": 1715,
      "Tro": 1716,
      "WICK": 1717,
      "cord": 1718,
      "zen": 1719,
      "cover": 1720,
      "THIR": 1721,
      "THIRD": 1722,
      "ile": 1723,
      "arry": 1724,
      "iece": 1725,
      "heavy": 1726,
      "Attend": 1727,
      "WARWICK": 1728,
      "HER": 1729,
      "pet": 1730,
      "ket": 1731,
      "Engl": 1732,
      "hur": 1733,
      "tomorrow": 1734,
      "oward": 1735,
      "ELL": 1736,
      "tender": 1737,
      "English": 1738,
      "Ju": 1739,
      "hu": 1740,
      "ont": 1741,
      "short": 1742,
      "point": 1743,
      "bless": 1744,
      "counter": 1745,
      "tonight": 1746,
      "person": 1747,
      "_S": 1748,
      "cast": 1749,
      "ga": 1750,
      "mn": 1751,
      "umber": 1752,
      "themselves": 1753,
      "water": 1754,
      "question": 1755,
      "CL": 1756,
      "Cor": 1757,
      "HOST": 1758,
      "woo": 1759,
      "rum": 1760,
      "OLUS": 1761,
      "hearts": 1762,
      "PHOLUS": 1763,
      "Roman": 1764,
      "ANTIPHOLUS": 1765,
      "Away": 1766,
      "Par": 1767,
      "hind": 1768,
      "tin": 1769,
      "white": 1770,
      "enemy": 1771,
      "appear": 1772,
      "wenty": 1773,
      "judge": 1774,
      "ger": 1775,
      "rel": 1776,
      "weak": 1777,
      "sup": 1778,
      "ions": 1779,
      "sport": 1780,
      "ament": 1781,
      "feel": 1782,
      "thri": 1783,
      "god": 1784,
      "quo": 1785,
      "merry": 1786,
      "Out": 1787,
      "ges": 1788,
      "ALL": 1789,
      "harm": 1790,
      "subject": 1791,
      "vali": 1792,
      "HN": 1793,
      "Lond": 1794,
      "VAL": 1795,
      "base": 1796,
      "farewell": 1797,
      "hair": 1798,
      "behold": 1799,
      "owers": 1800,
      "ount": 1801,
      "EMILIA": 1802,
      "chamber": 1803,
      "knave": 1804,
      "JOHN": 1805,
      "London": 1806,
      "gin": 1807,
      "knew": 1808,
      "staff": 1809,
      "sec": 1810,
      "speed": 1811,
      "speech": 1812,
      "patience": 1813,
      "Ah": 1814,
      "creat": 1815,
      "dest": 1816,
      "esh": 1817,
      "neither": 1818,
      "ARUS": 1819,
      "mortal": 1820,
      "ONA": 1821,
      "quar": 1822,
      "ils": 1823,
      "sons": 1824,
      "Pri": 1825,
      "mit": 1826,
      "ered": 1827,
      "atis": 1828,
      "loved": 1829,
      "via": 1830,
      "voice": 1831,
      "ANTONIO": 1832,
      "deliver": 1833,
      "Servant": 1834,
      "Bar": 1835,
      "loss": 1836,
      "Their": 1837,
      "next": 1838,
      "desp": 1839,
      "palace": 1840,
      "Ja": 1841,
      "Swe": 1842,
      "twenty": 1843,
      "wis": 1844,
      "wonder": 1845,
      "stant": 1846,
      "tic": 1847,
      "sion": 1848,
      "aste": 1849,
      "broke": 1850,
      "HELEN": 1851,
      "ny": 1852,
      "whe": 1853,
      "watch": 1854,
      "stu": 1855,
      "dog": 1856,
      "favour": 1857,
      "ISA": 1858,
      "CLA": 1859,
      "either": 1860,
      "mir": 1861,
      "ham": 1862,
      "mock": 1863,
      "coming": 1864,
      "safe": 1865,
      "EDWARD": 1866,
      "Love": 1867,
      "straight": 1868,
      "CLAU": 1869,
      "DI": 1870,
      "ior": 1871,
      "qual": 1872,
      "gentlemen": 1873,
      "EO": 1874,
      "Must": 1875,
      "bow": 1876,
      "pit": 1877,
      "win": 1878,
      "ended": 1879,
      "Hector": 1880,
      "save": 1881,
      "ways": 1882,
      "ROMEO": 1883,
      "soldier": 1884,
      "DEMONA": 1885,
      "DESDEMONA": 1886,
      "SU": 1887,
      "Tit": 1888,
      "cu": 1889,
      "dark": 1890,
      "uous": 1891,
      "vel": 1892,
      "ENIUS": 1893,
      "worse": 1894,
      "canst": 1895,
      "MENENIUS": 1896,
      "Des": 1897,
      "DROM": 1898,
      "Ye": 1899,
      "athe": 1900,
      "ches": 1901,
      "entreat": 1902,
      "door": 1903,
      "ender": 1904,
      "hop": 1905,
      "scorn": 1906,
      "confess": 1907,
      "justice": 1908,
      "Should": 1909,
      "DROMIO": 1910,
      "Ch": 1911,
      "OWN": 1912,
      "wret": 1913,
      "ooth": 1914,
      "ally": 1915,
      "dden": 1916,
      "toward": 1917,
      "Within": 1918,
      "town": 1919,
      "essenger": 1920,
      "CLAUDIO": 1921,
      "city": 1922,
      "emb": 1923,
      "fra": 1924,
      "stoo": 1925,
      "ourish": 1926,
      "rage": 1927,
      "valiant": 1928,
      "Sweet": 1929,
      "!—": 1930,
      "DICK": 1931,
      "FRI": 1932,
      "cas": 1933,
      "ool": 1934,
      "aught": 1935,
      "something": 1936,
      "guard": 1937,
      "BEROWN": 1938,
      "IDA": 1939,
      "BEROWNE": 1940,
      "SI": 1941,
      "duty": 1942,
      "ew": 1943,
      "glad": 1944,
      "RUCHIO": 1945,
      "PETRUCHIO": 1946,
      "cred": 1947,
      "uten": 1948,
      "moon": 1949,
      "OLIV": 1950,
      "dies": 1951,
      "traitor": 1952,
      "_Aside_": 1953,
      "Mo": 1954,
      "note": 1955,
      "prin": 1956,
      "els": 1957,
      "action": 1958,
      "pluck": 1959,
      "Such": 1960,
      "Fal": 1961,
      "PED": 1962,
      "coward": 1963,
      "lame": 1964,
      "qui": 1965,
      "rows": 1966,
      "CRESS": 1967,
      "withal": 1968,
      "lock": 1969,
      "trump": 1970,
      "married": 1971,
      "ENTINE": 1972,
      "Peace": 1973,
      "VALENTINE": 1974,
      "CRESSIDA": 1975,
      "book": 1976,
      "cuse": 1977,
      "din": 1978,
      "ding": 1979,
      "hours": 1980,
      "stands": 1981,
      "needs": 1982,
      "BELLA": 1983,
      "Gent": 1984,
      "TOR": 1985,
      "TOB": 1986,
      "bad": 1987,
      "lust": 1988,
      "assion": 1989,
      "Timon": 1990,
      "PANDARUS": 1991,
      "TOBY": 1992,
      "Athen": 1993,
      "gard": 1994,
      "today": 1995,
      "sever": 1996,
      "lion": 1997,
      "lot": 1998,
      "amb": 1999,
      "counsel": 2000,
      "SHAL": 2001,
      "VOLIO": 2002,
      "NOR": 2003,
      "dge": 2004,
      "almost": 2005,
      "riage": 2006,
      "rah": 2007,
      "flesh": 2008,
      "Romeo": 2009,
      "presently": 2010,
      "pale": 2011,
      "spoke": 2012,
      "IOLANUS": 2013,
      "claim": 2014,
      "CORIOLANUS": 2015,
      "!”": 2016,
      "CAL": 2017,
      "IZ": 2018,
      "aves": 2019,
      "hood": 2020,
      "tit": 2021,
      "fell": 2022,
      "didst": 2023,
      "Stand": 2024,
      "Against": 2025,
      "phe": 2026,
      "loy": 2027,
      "morning": 2028,
      "flatter": 2029,
      "grant": 2030,
      "TEUS": 2031,
      "PROTEUS": 2032,
      "dish": 2033,
      "spr": 2034,
      "arl": 2035,
      "ities": 2036,
      "host": 2037,
      "stir": 2038,
      "rey": 2039,
      "revenge": 2040,
      "ardin": 2041,
      "move": 2042,
      "CAP": 2043,
      "HELENA": 2044,
      "become": 2045,
      "feit": 2046,
      "died": 2047,
      "scar": 2048,
      "COUNT": 2049,
      "BUC": 2050,
      "GU": 2051,
      "dar": 2052,
      "ima": 2053,
      "lly": 2054,
      "receive": 2055,
      "KINGHAM": 2056,
      "strength": 2057,
      "respect": 2058,
      "gives": 2059,
      "Gentle": 2060,
      "BUCKINGHAM": 2061,
      "eds": 2062,
      "already": 2063,
      "sigh": 2064,
      "breast": 2065,
      "liege": 2066,
      "soldiers": 2067,
      "umph": 2068,
      "Hast": 2069,
      "wed": 2070,
      "majesty": 2071,
      "ESAR": 2072,
      "OLLES": 2073,
      "CAESAR": 2074,
      "LUCIUS": 2075,
      "PAROLLES": 2076,
      "BAN": 2077,
      "Cast": 2078,
      "eth": 2079,
      "wild": 2080,
      "trou": 2081,
      "join": 2082,
      "Cassio": 2083,
      "walk": 2084,
      "Dis": 2085,
      "GR": 2086,
      "UT": 2087,
      "eas": 2088,
      "mand": 2089,
      "test": 2090,
      "often": 2091,
      "chief": 2092,
      "hide": 2093,
      "lif": 2094,
      "feast": 2095,
      "ESUS": 2096,
      "LOW": 2097,
      "excell": 2098,
      "FFOLK": 2099,
      "EPHESUS": 2100,
      "SUFFOLK": 2101,
      "SHALLOW": 2102,
      "PAL": 2103,
      "main": 2104,
      "pher": 2105,
      "wars": 2106,
      "heir": 2107,
      "having": 2108,
      "div": 2109,
      "offer": 2110,
      "AMON": 2111,
      "firm": 2112,
      "deny": 2113,
      "sense": 2114,
      "slain": 2115,
      "PALAMON": 2116,
      "BUR": 2117,
      "Clau": 2118,
      "bond": 2119,
      "tre": 2120,
      "wound": 2121,
      "beast": 2122,
      "bosom": 2123,
      "Wel": 2124,
      "ations": 2125,
      "fully": 2126,
      "CASSIUS": 2127,
      "battle": 2128,
      "Claudi": 2129,
      "Call": 2130,
      "Pom": 2131,
      "od": 2132,
      "rever": 2133,
      "astard": 2134,
      "office": 2135,
      "High": 2136,
      "jest": 2137,
      "ok": 2138,
      "tor": 2139,
      "poss": 2140,
      "dire": 2141,
      "cience": 2142,
      "kings": 2143,
      "heavens": 2144,
      "TITUS": 2145,
      "grie": 2146,
      "remain": 2147,
      "Tal": 2148,
      "bur": 2149,
      "twi": 2150,
      "ines": 2151,
      "suc": 2152,
      "speaks": 2153,
      "slave": 2154,
      "Attendants": 2155,
      "Yea": 2156,
      "BENE": 2157,
      "CUS": 2158,
      "FL": 2159,
      "PORT": 2160,
      "rough": 2161,
      "eror": 2162,
      "tol": 2163,
      "stain": 2164,
      "ash": 2165,
      "living": 2166,
      "ENCE": 2167,
      "sudden": 2168,
      "appro": 2169,
      "Being": 2170,
      "begin": 2171,
      "suffer": 2172,
      "PEDRO": 2173,
      "BENEDICK": 2174,
      "PORTIA": 2175,
      "AD": 2176,
      "TRO": 2177,
      "dread": 2178,
      "fill": 2179,
      "inf": 2180,
      "cept": 2181,
      "loving": 2182,
      "ILUS": 2183,
      "Lords": 2184,
      "prithee": 2185,
      "Majesty": 2186,
      "KATHER": 2187,
      "above": 2188,
      "TROILUS": 2189,
      "Pl": 2190,
      "SIC": 2191,
      "na": 2192,
      "por": 2193,
      "thir": 2194,
      "ires": 2195,
      "rain": 2196,
      "til": 2197,
      "ARCI": 2198,
      "teach": 2199,
      "resh": 2200,
      "ARCITE": 2201,
      "Co": 2202,
      "HOR": 2203,
      "soft": 2204,
      "lov": 2205,
      "sible": 2206,
      "thanks": 2207,
      "Doth": 2208,
      "strike": 2209,
      "ardinal": 2210,
      "fing": 2211,
      "pap": 2212,
      "llo": 2213,
      "tius": 2214,
      "ORLAND": 2215,
      "whole": 2216,
      "Prote": 2217,
      "children": 2218,
      "pretty": 2219,
      "Claudio": 2220,
      "SOL": 2221,
      "ale": 2222,
      "case": 2223,
      "ele": 2224,
      "fat": 2225,
      "ging": 2226,
      "passion": 2227,
      "wra": 2228,
      "wood": 2229,
      "instru": 2230,
      "ANG": 2231,
      "poison": 2232,
      "truly": 2233,
      "ATO": 2234,
      "honourable": 2235,
      "called": 2236,
      "ISABELLA": 2237,
      "BUS": 2238,
      "EUS": 2239,
      "IET": 2240,
      "MAL": 2241,
      "Never": 2242,
      "Qu": 2243,
      "dri": 2244,
      "eter": 2245,
      "orti": 2246,
      "seas": 2247,
      "liber": 2248,
      "add": 2249,
      "labour": 2250,
      "Fortune": 2251,
      "pped": 2252,
      "laugh": 2253,
      "JULIET": 2254,
      "Lucius": 2255,
      "KENT": 2256,
      "fam": 2257,
      "ker": 2258,
      "ped": 2259,
      "bel": 2260,
      "hion": 2261,
      "marriage": 2262,
      "resol": 2263,
      "conscience": 2264,
      "Falstaff": 2265,
      "Ty": 2266,
      "ago": 2267,
      "eld": 2268,
      "fas": 2269,
      "held": 2270,
      "lip": 2271,
      "ads": 2272,
      "conce": 2273,
      "lordship": 2274,
      "deeds": 2275,
      "spirits": 2276,
      "letters": 2277,
      "Fa": 2278,
      "aven": 2279,
      "fle": 2280,
      "lst": 2281,
      "swi": 2282,
      "tom": 2283,
      "sters": 2284,
      "post": 2285,
      "ilus": 2286,
      "Helen": 2287,
      "seems": 2288,
      "undred": 2289,
      "heads": 2290,
      "vantage": 2291,
      "LEONTES": 2292,
      "Palace": 2293,
      "Castle": 2294,
      "ACH": 2295,
      "Know": 2296,
      "PIST": 2297,
      "Ven": 2298,
      "uri": 2299,
      "throw": 2300,
      "order": 2301,
      "affection": 2302,
      "fortunes": 2303,
      "close": 2304,
      "carry": 2305,
      "PISTOL": 2306,
      "GON": 2307,
      "Harry": 2308,
      "Mac": 2309,
      "PA": 2310,
      "PEM": 2311,
      "ecut": 2312,
      "ier": 2313,
      "mid": 2314,
      "pare": 2315,
      "vie": 2316,
      "oured": 2317,
      "tale": 2318,
      "acqu": 2319,
      "anything": 2320,
      "cheer": 2321,
      "mighty": 2322,
      "Suf": 2323,
      "cross": 2324,
      "Clar": 2325,
      "VIOL": 2326,
      "hundred": 2327,
      "beard": 2328,
      "oot": 2329,
      "urse": 2330,
      "akes": 2331,
      "THES": 2332,
      "ICLES": 2333,
      "pride": 2334,
      "effect": 2335,
      "understand": 2336,
      "IANA": 2337,
      "double": 2338,
      "BOT": 2339,
      "PERICLES": 2340,
      "takes": 2341,
      "SEN": 2342,
      "cti": 2343,
      "cru": 2344,
      "five": 2345,
      "fresh": 2346,
      "mies": 2347,
      "used": 2348,
      "ites": 2349,
      "ingham": 2350,
      "behind": 2351,
      "chur": 2352,
      "als": 2353,
      "conqu": 2354,
      "wouldst": 2355,
      "parts": 2356,
      "VIOLA": 2357,
      "FE": 2358,
      "Pis": 2359,
      "trem": 2360,
      "vow": 2361,
      "ina": 2362,
      "ANS": 2363,
      "cted": 2364,
      "offence": 2365,
      "tempt": 2366,
      "LEONATO": 2367,
      "street": 2368,
      "secret": 2369,
      "ORLANDO": 2370,
      "THESEUS": 2371,
      "Buck": 2372,
      "Count": 2373,
      "GEN": 2374,
      "Sil": 2375,
      "YM": 2376,
      "treason": 2377,
      "arch": 2378,
      "witness": 2379,
      "souls": 2380,
      "Troilus": 2381,
      "Au": 2382,
      "GE": 2383,
      "SPE": 2384,
      "Wi": 2385,
      "ax": 2386,
      "moun": 2387,
      "oc": 2388,
      "meas": 2389,
      "nock": 2390,
      "second": 2391,
      "shar": 2392,
      "BOY": 2393,
      "ladies": 2394,
      "IMOGEN": 2395,
      "OLIVIA": 2396,
      "Suffolk": 2397,
      "Clarence": 2398,
      "Fri": 2399,
      "SP": 2400,
      "dain": 2401,
      "fic": 2402,
      "piece": 2403,
      "Pompe": 2404,
      "SICINIUS": 2405,
      "SPEED": 2406,
      "Cle": 2407,
      "Da": 2408,
      "Hold": 2409,
      "Troy": 2410,
      "gif": 2411,
      "satis": 2412,
      "won": 2413,
      "stance": 2414,
      "bears": 2415,
      "ERN": 2416,
      "proof": 2417,
      "perceive": 2418,
      "execut": 2419,
      "enemies": 2420,
      "lph": 2421,
      "Paris": 2422,
      "Athens": 2423,
      "fashion": 2424,
      "BRO": 2425,
      "GH": 2426,
      "PROS": 2427,
      "Sign": 2428,
      "ancy": 2429,
      "ited": 2430,
      "along": 2431,
      "ung": 2432,
      "ANCE": 2433,
      "ELO": 2434,
      "CHAR": 2435,
      "longer": 2436,
      "PERO": 2437,
      "quiet": 2438,
      "ANGELO": 2439,
      "PROSPERO": 2440,
      "cen": 2441,
      "drown": 2442,
      "drun": 2443,
      "ught": 2444,
      "issue": 2445,
      "forward": 2446,
      "ARBUS": 2447,
      "simp": 2448,
      "gover": 2449,
      "shows": 2450,
      "buy": 2451,
      "Buckingham": 2452,
      "Pompey": 2453,
      ".’": 2454,
      "Ind": 2455,
      "pas": 2456,
      "round": 2457,
      "star": 2458,
      "dolph": 2459,
      "ENOB": 2460,
      "worship": 2461,
      "proceed": 2462,
      "Because": 2463,
      "promise": 2464,
      "excellent": 2465,
      "ENOBARBUS": 2466,
      "Fir": 2467,
      "bas": 2468,
      "noise": 2469,
      "choose": 2470,
      "feed": 2471,
      "posed": 2472,
      "ONE": 2473,
      "blind": 2474,
      "ague": 2475,
      "small": 2476,
      "Brit": 2477,
      "birth": 2478,
      "valour": 2479,
      "title": 2480,
      "view": 2481,
      "Hu": 2482,
      "OT": 2483,
      "fine": 2484,
      "ners": 2485,
      "ined": 2486,
      "health": 2487,
      "least": 2488,
      "cei": 2489,
      "alt": 2490,
      "ider": 2491,
      "consent": 2492,
      "contin": 2493,
      "going": 2494,
      "patient": 2495,
      "CASSIO": 2496,
      "DIER": 2497,
      "trouble": 2498,
      "SOLDIER": 2499,
      "First": 2500,
      "CTOR": 2501,
      "Ham": 2502,
      "Hark": 2503,
      "SIL": 2504,
      "bs": 2505,
      "dull": 2506,
      "ress": 2507,
      "twas": 2508,
      "ual": 2509,
      "nder": 2510,
      "kept": 2511,
      "sol": 2512,
      "worst": 2513,
      "Anti": 2514,
      "ATR": 2515,
      "ATIO": 2516,
      "curse": 2517,
      "LUCIO": 2518,
      "ronic": 2519,
      "quoth": 2520,
      "HORATIO": 2521,
      "Bet": 2522,
      "Cy": 2523,
      "Earl": 2524,
      "FO": 2525,
      "Ford": 2526,
      "Fair": 2527,
      "SA": 2528,
      "ease": 2529,
      "sw": 2530,
      "year": 2531,
      "cher": 2532,
      "ourselves": 2533,
      "rid": 2534,
      "THE": 2535,
      "presence": 2536,
      "Antonio": 2537,
      "learn": 2538,
      "Talbot": 2539,
      "paper": 2540,
      "Hamlet": 2541,
      "CELIA": 2542,
      "DE": 2543,
      "Di": 2544,
      "Gu": 2545,
      "Mine": 2546,
      "Wor": 2547,
      "forget": 2548,
      "lius": 2549,
      "motion": 2550,
      "blow": 2551,
      "kingdom": 2552,
      "entertain": 2553,
      "Bardolph": 2554,
      "Highness": 2555,
      "Signior": 2556,
      "Kate": 2557,
      "gy": 2558,
      "horn": 2559,
      "delight": 2560,
      "sole": 2561,
      "ural": 2562,
      "herself": 2563,
      "manner": 2564,
      "sper": 2565,
      "march": 2566,
      "write": 2567,
      "Martius": 2568,
      "boys": 2569,
      "virtuous": 2570,
      "green": 2571,
      "captain": 2572,
      "JULIA": 2573,
      "dangerous": 2574,
      "Titus": 2575,
      "LEN": 2576,
      "_They": 2577,
      "cure": 2578,
      "ened": 2579,
      "ato": 2580,
      "forgot": 2581,
      "wealth": 2582,
      "neigh": 2583,
      "angry": 2584,
      "ILL": 2585,
      "fools": 2586,
      "foolish": 2587,
      "Rosal": 2588,
      "BEATR": 2589,
      "PRINC": 2590,
      "BEATRICE": 2591,
      "Am": 2592,
      "Cardinal": 2593,
      "van": 2594,
      "vain": 2595,
      "esy": 2596,
      "ents": 2597,
      "ages": 2598,
      "Soldi": 2599,
      "Ange": 2600,
      "Mark": 2601,
      "phy": 2602,
      "Leon": 2603,
      "taken": 2604,
      "faults": 2605,
      "fetch": 2606,
      "possess": 2607,
      "Great": 2608,
      "MUR": 2609,
      "POM": 2610,
      "Saint": 2611,
      "dra": 2612,
      "match": 2613,
      "depart": 2614,
      "entine": 2615,
      "Hear": 2616,
      "fold": 2617,
      "BASS": 2618,
      "banish": 2619,
      "DERER": 2620,
      "Chris": 2621,
      "PRINCESS": 2622,
      "MURDERER": 2623,
      "ABETH": 2624,
      "Men": 2625,
      "Sal": 2626,
      "SAL": 2627,
      "camp": 2628,
      "gates": 2629,
      "twere": 2630,
      "ug": 2631,
      "orge": 2632,
      "among": 2633,
      "Heaven": 2634,
      "ELIZ": 2635,
      "serv": 2636,
      "ledge": 2637,
      "BERTR": 2638,
      "position": 2639,
      "laughter": 2640,
      "brief": 2641,
      "quickly": 2642,
      "colour": 2643,
      "Faith": 2644,
      "ELIZABETH": 2645,
      "BERTRAM": 2646,
      "Bro": 2647,
      "Messenger": 2648,
      "PO": 2649,
      "bright": 2650,
      "iled": 2651,
      "sch": 2652,
      "ude": 2653,
      "stor": 2654,
      "beth": 2655,
      "ARMA": 2656,
      "Nothing": 2657,
      "glass": 2658,
      "jeal": 2659,
      "brain": 2660,
      "blessed": 2661,
      "BASTARD": 2662,
      "hurt": 2663,
      "Angelo": 2664,
      "POMPE": 2665,
      "ARMADO": 2666,
      "APEM": 2667,
      "HOT": 2668,
      "NUR": 2669,
      "wench": 2670,
      "yond": 2671,
      "shake": 2672,
      "rust": 2673,
      "illes": 2674,
      "iles": 2675,
      "ANTUS": 2676,
      "month": 2677,
      "EDGAR": 2678,
      "Jove": 2679,
      "possible": 2680,
      "golden": 2681,
      "troth": 2682,
      "humour": 2683,
      "quarrel": 2684,
      "COUNTESS": 2685,
      "cruel": 2686,
      "SPUR": 2687,
      "POMPEY": 2688,
      "APEMANTUS": 2689,
      "HOTSPUR": 2690,
      "NURSE": 2691,
      "Af": 2692,
      "BARD": 2693,
      "Under": 2694,
      "Val": 2695,
      "ade": 2696,
      "aid": 2697,
      "gir": 2698,
      "patch": 2699,
      "tes": 2700,
      "wast": 2701,
      "ature": 2702,
      "seal": 2703,
      "leep": 2704,
      "Think": 2705,
      "masters": 2706,
      "laid": 2707,
      "blush": 2708,
      "OLPH": 2709,
      "Somer": 2710,
      "breed": 2711,
      "natural": 2712,
      "commend": 2713,
      "steal": 2714,
      "REY": 2715,
      "BARDOLPH": 2716,
      "IT": 2717,
      "ULET": 2718,
      "Wal": 2719,
      "inius": 2720,
      "anio": 2721,
      "ingly": 2722,
      "utter": 2723,
      "ames": 2724,
      "shape": 2725,
      "supp": 2726,
      "ility": 2727,
      "breathe": 2728,
      "SEBAST": 2729,
      "prayers": 2730,
      "bitter": 2731,
      "princes": 2732,
      "CAPULET": 2733,
      "SEBASTIAN": 2734,
      "Ach": 2735,
      "NE": 2736,
      "cite": 2737,
      "evil": 2738,
      "fled": 2739,
      "try": 2740,
      "anci": 2741,
      "terms": 2742,
      "ties": 2743,
      "proper": 2744,
      "LAFE": 2745,
      "beggar": 2746,
      "Stay": 2747,
      "summer": 2748,
      "BURY": 2749,
      "Somerset": 2750,
      "LAFEW": 2751,
      "Ab": 2752,
      "BIAN": 2753,
      "FR": 2754,
      "eed": 2755,
      "frown": 2756,
      "zed": 2757,
      "thor": 2758,
      "six": 2759,
      "ilty": 2760,
      "thence": 2761,
      "Whom": 2762,
      "ATOR": 2763,
      "jewel": 2764,
      "temper": 2765,
      "Unless": 2766,
      "Flourish": 2767,
      "cheek": 2768,
      "obey": 2769,
      "Welcome": 2770,
      "measure": 2771,
      "DAU": 2772,
      "Gree": 2773,
      "ald": 2774,
      "awhile": 2775,
      "blame": 2776,
      "kin": 2777,
      "pes": 2778,
      "pub": 2779,
      "ror": 2780,
      "llen": 2781,
      "ley": 2782,
      "limb": 2783,
      "sie": 2784,
      "ONIUS": 2785,
      "Into": 2786,
      "offic": 2787,
      "fied": 2788,
      "fearful": 2789,
      "opin": 2790,
      "berg": 2791,
      "clear": 2792,
      "Poor": 2793,
      "wisdom": 2794,
      "stood": 2795,
      "BROKE": 2796,
      "Ad": 2797,
      "EV": 2798,
      "Fie": 2799,
      "cir": 2800,
      "catch": 2801,
      "drum": 2802,
      "sus": 2803,
      "uch": 2804,
      "anon": 2805,
      "argu": 2806,
      "weary": 2807,
      "adv": 2808,
      "spur": 2809,
      "bert": 2810,
      "dinner": 2811,
      "pherd": 2812,
      "public": 2813,
      "Bes": 2814,
      "Char": 2815,
      "Mont": 2816,
      "OS": 2817,
      "RIUS": 2818,
      "due": 2819,
      "sme": 2820,
      "thro": 2821,
      "eness": 2822,
      "army": 2823,
      "stone": 2824,
      "vey": 2825,
      "rose": 2826,
      "Those": 2827,
      "ided": 2828,
      "mali": 2829,
      "aking": 2830,
      "iling": 2831,
      "dience": 2832,
      "Margar": 2833,
      "glory": 2834,
      "sorry": 2835,
      "stop": 2836,
      "centio": 2837,
      "borne": 2838,
      "sharp": 2839,
      "Margaret": 2840,
      "Ale": 2841,
      "CAM": 2842,
      "GA": 2843,
      "VIUS": 2844,
      "alive": 2845,
      "dle": 2846,
      "gate": 2847,
      "ked": 2848,
      "kins": 2849,
      "ler": 2850,
      "rance": 2851,
      "song": 2852,
      "yra": 2853,
      "ens": 2854,
      "iti": 2855,
      "itors": 2856,
      "shadow": 2857,
      "honesty": 2858,
      "greater": 2859,
      "calls": 2860,
      "plague": 2861,
      "purse": 2862,
      "grand": 2863,
      "banished": 2864,
      "pains": 2865,
      "several": 2866,
      "spring": 2867,
      "swift": 2868,
      "Achilles": 2869,
      "bastard": 2870,
      "lend": 2871,
      "mend": 2872,
      "sort": 2873,
      "sooth": 2874,
      "inno": 2875,
      "ENS": 2876,
      "iffer": 2877,
      "ular": 2878,
      "RIAN": 2879,
      "cheeks": 2880,
      "utenberg": 2881,
      "dishon": 2882,
      "Ge": 2883,
      "_D": 2884,
      "dance": 2885,
      "pure": 2886,
      "sland": 2887,
      "taste": 2888,
      "ced": 2889,
      "thout": 2890,
      "unning": 2891,
      "ANNE": 2892,
      "cian": 2893,
      "Dost": 2894,
      "ETRIUS": 2895,
      "North": 2896,
      "DEMETRIUS": 2897,
      "Cassius": 2898,
      "TRANIO": 2899,
      "LYS": 2900,
      "Corio": 2901,
      "embrace": 2902,
      "scarce": 2903,
      "Without": 2904,
      "jealous": 2905,
      "Ber": 2906,
      "Sen": 2907,
      "wine": 2908,
      "wounds": 2909,
      "top": 2910,
      "lease": 2911,
      "amon": 2912,
      "few": 2913,
      "concl": 2914,
      "mod": 2915,
      "viol": 2916,
      "rank": 2917,
      "drawn": 2918,
      "large": 2919,
      "THERSI": 2920,
      "Soldiers": 2921,
      "Alex": 2922,
      "THERSITES": 2923,
      "Phi": 2924,
      "_He": 2925,
      "brow": 2926,
      "lest": 2927,
      "mut": 2928,
      "rat": 2929,
      "rob": 2930,
      "tian": 2931,
      "ANO": 2932,
      "endure": 2933,
      "table": 2934,
      "ici": 2935,
      "LAW": 2936,
      "mission": 2937,
      "ignor": 2938,
      "REW": 2939,
      "silver": 2940,
      "Both": 2941,
      "FRIAR": 2942,
      "ADRIAN": 2943,
      "occas": 2944,
      "IP": 2945,
      "IFF": 2946,
      "POST": 2947,
      "cat": 2948,
      "hy": 2949,
      "pin": 2950,
      "vate": 2951,
      "usur": 2952,
      "ORA": 2953,
      "THUM": 2954,
      "REG": 2955,
      "struck": 2956,
      "walls": 2957,
      "HOSTESS": 2958,
      "wretched": 2959,
      "Ere": 2960,
      "HUM": 2961,
      "Iago": 2962,
      "Jew": 2963,
      "OU": 2964,
      "ack": 2965,
      "cr": 2966,
      "rise": 2967,
      "wd": 2968,
      "instant": 2969,
      "ander": 2970,
      "tear": 2971,
      "bling": 2972,
      "flowers": 2973,
      "fig": 2974,
      "holds": 2975,
      "ANDREW": 2976,
      "wits": 2977,
      "BERLAND": 2978,
      "mia": 2979,
      "prisoner": 2980,
      "bestow": 2981,
      "request": 2982,
      "trumpet": 2983,
      "NORTHUM": 2984,
      "success": 2985,
      "MALVOLIO": 2986,
      "SENATOR": 2987,
      "EVANS": 2988,
      "itizen": 2989,
      "NORTHUMBERLAND": 2990,
      "Bring": 2991,
      "EX": 2992,
      "Fo": 2993,
      "MOR": 2994,
      "fru": 2995,
      "nest": 2996,
      "ption": 2997,
      "winter": 2998,
      "thither": 2999,
      "atri": 3000,
      "reven": 3001,
      "lean": 3002,
      "flower": 3003,
      "ENTIO": 3004,
      "compan": 3005,
      "kindness": 3006,
      "humble": 3007,
      "POLONIUS": 3008,
      "Moor": 3009,
      "church": 3010,
      "drunk": 3011,
      "Cam": 3012,
      "Ke": 3013,
      "Ly": 3014,
      "Lest": 3015,
      "intend": 3016,
      "hel": 3017,
      "because": 3018,
      "chang": 3019,
      "demand": 3020,
      "cost": 3021,
      "fame": 3022,
      "ERS": 3023,
      "mbly": 3024,
      "victor": 3025,
      "folly": 3026,
      "Anne": 3027,
      "SEY": 3028,
      "prepar": 3029,
      "wert": 3030,
      "Palamon": 3031,
      "condition": 3032,
      "approach": 3033,
      "Clif": 3034,
      "MOTH": 3035,
      "TEN": 3036,
      "corn": 3037,
      "cunning": 3038,
      "dwell": 3039,
      "mere": 3040,
      "vin": 3041,
      "ators": 3042,
      "liver": 3043,
      "deal": 3044,
      "neck": 3045,
      "goodly": 3046,
      "fright": 3047,
      "tribut": 3048,
      "Alar": 3049,
      "import": 3050,
      "gross": 3051,
      "learned": 3052,
      "HERM": 3053,
      "COST": 3054,
      "CYM": 3055,
      "Gutenberg": 3056,
      "bones": 3057,
      "py": 3058,
      "pun": 3059,
      "powers": 3060,
      "tur": 3061,
      "umb": 3062,
      "vish": 3063,
      "vell": 3064,
      "leg": 3065,
      "aside": 3066,
      "alm": 3067,
      "tial": 3068,
      "fee": 3069,
      "moved": 3070,
      "sail": 3071,
      "Offic": 3072,
      "hearing": 3073,
      "tents": 3074,
      "falls": 3075,
      "Project": 3076,
      "UND": 3077,
      "venture": 3078,
      "BELINE": 3079,
      "After": 3080,
      "opinion": 3081,
      "Keep": 3082,
      "COSTARD": 3083,
      "CYMBELINE": 3084,
      "BRA": 3085,
      "House": 3086,
      "aunt": 3087,
      "bare": 3088,
      "mour": 3089,
      "var": 3090,
      "ises": 3091,
      "methinks": 3092,
      "sem": 3093,
      "road": 3094,
      "key": 3095,
      "usion": 3096,
      "amor": 3097,
      "fears": 3098,
      "shine": 3099,
      "aked": 3100,
      "bleed": 3101,
      "hadst": 3102,
      "excuse": 3103,
      "offend": 3104,
      "courage": 3105,
      "priest": 3106,
      "precious": 3107,
      "clou": 3108,
      "Art": 3109,
      "visit": 3110,
      "wanton": 3111,
      "drop": 3112,
      "While": 3113,
      "creature": 3114,
      "KATHERINA": 3115,
      "Indeed": 3116,
      "Bol": 3117,
      "MUND": 3118,
      "Tower": 3119,
      "West": 3120,
      "bon": 3121,
      "bly": 3122,
      "hin": 3123,
      "ial": 3124,
      "stars": 3125,
      "ingbroke": 3126,
      "forbid": 3127,
      "necess": 3128,
      "rude": 3129,
      "knowledge": 3130,
      "ILLO": 3131,
      "EDMUND": 3132,
      "clock": 3133,
      "highness": 3134,
      "rememb": 3135,
      "greet": 3136,
      "wicked": 3137,
      "Juli": 3138,
      "liberty": 3139,
      "physi": 3140,
      "George": 3141,
      "Bolingbroke": 3142,
      "Fare": 3143,
      "Ne": 3144,
      "PUC": 3145,
      "YSS": 3146,
      "boun": 3147,
      "non": 3148,
      "vest": 3149,
      "threat": 3150,
      "ester": 3151,
      "demon": 3152,
      "advantage": 3153,
      "tire": 3154,
      "ESCAL": 3155,
      "expect": 3156,
      "foe": 3157,
      "private": 3158,
      "triumph": 3159,
      "Shallow": 3160,
      "tongues": 3161,
      "Hero": 3162,
      "ULYSS": 3163,
      "princely": 3164,
      "judgement": 3165,
      "Jack": 3166,
      "Clifford": 3167,
      "Juliet": 3168,
      "ESCALUS": 3169,
      "ULYSSES": 3170,
      "?—": 3171,
      "CK": 3172,
      "Could": 3173,
      "Ho": 3174,
      "WOL": 3175,
      "YLO": 3176,
      "fain": 3177,
      "hunt": 3178,
      "isbury": 3179,
      "ishop": 3180,
      "revo": 3181,
      "verse": 3182,
      "idius": 3183,
      "mach": 3184,
      "uphin": 3185,
      "CHESS": 3186,
      "angu": 3187,
      "DUFF": 3188,
      "DUCHESS": 3189,
      "Arcite": 3190,
      "Unto": 3191,
      "maiden": 3192,
      "SHYLO": 3193,
      "pier": 3194,
      "MACDUFF": 3195,
      "wait": 3196,
      "choice": 3197,
      "BOYET": 3198,
      "Dauphin": 3199,
      "Salisbury": 3200,
      "ancient": 3201,
      "smell": 3202,
      "ADRIANA": 3203,
      "WOLSEY": 3204,
      "SHYLOCK": 3205,
      "Emi": 3206,
      "Gre": 3207,
      "Lanc": 3208,
      "VI": 3209,
      "WAT": 3210,
      "_K": 3211,
      "cup": 3212,
      "knock": 3213,
      "lament": 3214,
      "rous": 3215,
      "sn": 3216,
      "heat": 3217,
      "reck": 3218,
      "leaves": 3219,
      "wixt": 3220,
      "former": 3221,
      "rogue": 3222,
      "allow": 3223,
      "quite": 3224,
      "shouldst": 3225,
      "persu": 3226,
      "affair": 3227,
      "foes": 3228,
      "monster": 3229,
      "guilty": 3230,
      "Caius": 3231,
      "MARIA": 3232,
      "smile": 3233,
      "kni": 3234,
      "choly": 3235,
      "Methinks": 3236,
      "defend": 3237,
      "umberland": 3238,
      "CLIFF": 3239,
      "Prithee": 3240,
      "Macbeth": 3241,
      "Rosalind": 3242,
      "POSTHUM": 3243,
      "Lancaster": 3244,
      "POSTHUMUS": 3245,
      "CR": 3246,
      "Get": 3247,
      "HORT": 3248,
      "TIUS": 3249,
      "Ver": 3250,
      "fish": 3251,
      "nay": 3252,
      "ua": 3253,
      "ores": 3254,
      "story": 3255,
      "legs": 3256,
      "owe": 3257,
      "ERD": 3258,
      "poin": 3259,
      "mund": 3260,
      "iful": 3261,
      "blows": 3262,
      "spend": 3263,
      "CHIMO": 3264,
      "IACHIMO": 3265,
      "greatness": 3266,
      "looked": 3267,
      "chase": 3268,
      "virgin": 3269,
      "CLOTEN": 3270,
      "grows": 3271,
      "damn": 3272,
      "knee": 3273,
      "third": 3274,
      "Valentine": 3275,
      "itizens": 3276,
      "HORTENS": 3277,
      "AST": 3278,
      "Mer": 3279,
      "Mus": 3280,
      "Two": 3281,
      "Vol": 3282,
      "Wilt": 3283,
      "treas": 3284,
      "vouch": 3285,
      "enjoy": 3286,
      "encounter": 3287,
      "hill": 3288,
      "ria": 3289,
      "cock": 3290,
      "ney": 3291,
      "constant": 3292,
      "comple": 3293,
      "ify": 3294,
      "tail": 3295,
      "sirrah": 3296,
      "author": 3297,
      "wherefore": 3298,
      "Wherein": 3299,
      "honours": 3300,
      "bearing": 3301,
      "paid": 3302,
      "Edmund": 3303,
      "Made": 3304,
      "rascal": 3305,
      "FLU": 3306,
      "VIR": 3307,
      "WO": 3308,
      "bene": 3309,
      "dry": 3310,
      "net": 3311,
      "tree": 3312,
      "thunder": 3313,
      "inj": 3314,
      "heed": 3315,
      "heels": 3316,
      "meat": 3317,
      "melan": 3318,
      "ries": 3319,
      "yourselves": 3320,
      "manners": 3321,
      "safet": 3322,
      "prov": 3323,
      "spent": 3324,
      "stern": 3325,
      "QUICK": 3326,
      "train": 3327,
      "fellows": 3328,
      "Hastings": 3329,
      "wrath": 3330,
      "simple": 3331,
      "QUICKLY": 3332,
      "BOL": 3333,
      "COM": 3334,
      "IE": 3335,
      "TOU": 3336,
      "_Re": 3337,
      "cul": 3338,
      "cried": 3339,
      "ek": 3340,
      "gg": 3341,
      "game": 3342,
      "skill": 3343,
      "tw": 3344,
      "wing": 3345,
      "memor": 3346,
      "forest": 3347,
      "roar": 3348,
      "ama": 3349,
      "ident": 3350,
      "fail": 3351,
      "contr": 3352,
      "STONE": 3353,
      "wash": 3354,
      "INGBROKE": 3355,
      "CHSTONE": 3356,
      "tray": 3357,
      "tyrant": 3358,
      "ILLES": 3359,
      "commit": 3360,
      "wrongs": 3361,
      "ROSALINE": 3362,
      "emperor": 3363,
      "damned": 3364,
      "JAQU": 3365,
      "ACHILLES": 3366,
      "Christian": 3367,
      "Northumberland": 3368,
      "melancholy": 3369,
      "safety": 3370,
      "BOLINGBROKE": 3371,
      "TOUCHSTONE": 3372,
      "Hence": 3373,
      "IX": 3374,
      "TAL": 3375,
      "VIA": 3376,
      "fond": 3377,
      "jax": 3378,
      "loud": 3379,
      "sy": 3380,
      "swords": 3381,
      "slaughter": 3382,
      "thief": 3383,
      "stro": 3384,
      "start": 3385,
      "sell": 3386,
      "seven": 3387,
      "rot": 3388,
      "ety": 3389,
      "doing": 3390,
      "unless": 3391,
      "lover": 3392,
      "END": 3393,
      "shepherd": 3394,
      "perfect": 3395,
      "heavenly": 3396,
      "lawful": 3397,
      "steel": 3398,
      "stuff": 3399,
      "mountain": 3400,
      "Friar": 3401,
      "Leonato": 3402,
      "BASSANIO": 3403,
      "Besides": 3404,
      "Ajax": 3405,
      "Bian": 3406,
      "Gi": 3407,
      "HAST": 3408,
      "IEL": 3409,
      "Put": 3410,
      "cil": 3411,
      "cate": 3412,
      "fie": 3413,
      "faint": 3414,
      "hors": 3415,
      "number": 3416,
      "rare": 3417,
      "rate": 3418,
      "ume": 3419,
      "nose": 3420,
      "reput": 3421,
      "habit": 3422,
      "iter": 3423,
      "cease": 3424,
      "weap": 3425,
      "cot": 3426,
      "INGS": 3427,
      "sometime": 3428,
      "mony": 3429,
      "Marcus": 3430,
      "keeps": 3431,
      "loyal": 3432,
      "finger": 3433,
      "govern": 3434,
      "Charles": 3435,
      "CAMILLO": 3436,
      "occasion": 3437,
      "REGAN": 3438,
      "Bianca": 3439,
      "HASTINGS": 3440,
      "Long": 3441,
      "SO": 3442,
      "WER": 3443,
      "dur": 3444,
      "naught": 3445,
      "zard": 3446,
      "metri": 3447,
      "widow": 3448,
      "betray": 3449,
      "idle": 3450,
      "sack": 3451,
      "mayst": 3452,
      "icles": 3453,
      "perate": 3454,
      "desires": 3455,
      "Sirrah": 3456,
      "brothers": 3457,
      "Norfolk": 3458,
      "partic": 3459,
      "throne": 3460,
      "Demetri": 3461,
      "SERVING": 3462,
      "employ": 3463,
      "Percy": 3464,
      "CORN": 3465,
      "oaths": 3466,
      "Proteus": 3467,
      "solemn": 3468,
      "circ": 3469,
      "Follow": 3470,
      "WATCH": 3471,
      "TALBOT": 3472,
      "Demetrius": 3473,
      "Bl": 3474,
      "Bid": 3475,
      "Hang": 3476,
      "Mon": 3477,
      "PTI": 3478,
      "Show": 3479,
      "ape": 3480,
      "food": 3481,
      "fought": 3482,
      "line": 3483,
      "ulet": 3484,
      "wake": 3485,
      "atra": 3486,
      "leis": 3487,
      "blest": 3488,
      "Exeunt": 3489,
      "agger": 3490,
      "IAM": 3491,
      "broken": 3492,
      "wards": 3493,
      "madness": 3494,
      "opatra": 3495,
      "cursed": 3496,
      "courtesy": 3497,
      "Capulet": 3498,
      "Venice": 3499,
      "Cleopatra": 3500,
      "HORTENSIO": 3501,
      "_Reads": 3502,
      "Bened": 3503,
      "FA": 3504,
      "ITH": 3505,
      "Kent": 3506,
      "NIA": 3507,
      "Pardon": 3508,
      "Si": 3509,
      "Ste": 3510,
      "duke": 3511,
      "differ": 3512,
      "fury": 3513,
      "port": 3514,
      "incl": 3515,
      "ances": 3516,
      "step": 3517,
      "dev": 3518,
      "deceive": 3519,
      "whence": 3520,
      "INS": 3521,
      "ieu": 3522,
      "protest": 3523,
      "spite": 3524,
      "perform": 3525,
      "vide": 3526,
      "acle": 3527,
      "strous": 3528,
      "minister": 3529,
      "corru": 3530,
      "colours": 3531,
      "thrice": 3532,
      "FRIEND": 3533,
      "argument": 3534,
      "malice": 3535,
      "Emilia": 3536,
      "Hal": 3537,
      "LANCE": 3538,
      "Please": 3539,
      "SON": 3540,
      "dust": 3541,
      "fare": 3542,
      "gown": 3543,
      "grown": 3544,
      "ming": 3545,
      "vous": 3546,
      "vows": 3547,
      "orious": 3548,
      "reign": 3549,
      "seat": 3550,
      "sequ": 3551,
      "dec": 3552,
      "urg": 3553,
      "neg": 3554,
      "Tomorrow": 3555,
      "abs": 3556,
      "lands": 3557,
      "ATIAN": 3558,
      "Wherefore": 3559,
      "flood": 3560,
      "fix": 3561,
      "preh": 3562,
      "follows": 3563,
      "BAPTI": 3564,
      "repent": 3565,
      "weeping": 3566,
      "slow": 3567,
      "silence": 3568,
      "Time": 3569,
      "kneel": 3570,
      "Captain": 3571,
      "JAIL": 3572,
      "ELLEN": 3573,
      "GRATIAN": 3574,
      "twice": 3575,
      "FOOL": 3576,
      "FLUELLEN": 3577,
      "SERVINGMAN": 3578,
      "BAPTISTA": 3579,
      "GRATIANO": 3580,
      "Dou": 3581,
      "Dian": 3582,
      "IGO": 3583,
      "Still": 3584,
      "TOL": 3585,
      "YCUS": 3586,
      "_Within": 3587,
      "bend": 3588,
      "ded": 3589,
      "ns": 3590,
      "essed": 3591,
      "stones": 3592,
      "ref": 3593,
      "reed": 3594,
      "whis": 3595,
      "lovers": 3596,
      "conj": 3597,
      "disgrace": 3598,
      "dign": 3599,
      "wherein": 3600,
      "fiend": 3601,
      "Prin": 3602,
      "witch": 3603,
      "MONT": 3604,
      "griefs": 3605,
      "armour": 3606,
      "AUTOL": 3607,
      "whether": 3608,
      "burden": 3609,
      "dreadful": 3610,
      "Silvia": 3611,
      "gift": 3612,
      "fruit": 3613,
      "affairs": 3614,
      "knife": 3615,
      "horses": 3616,
      "leisure": 3617,
      "JAILER": 3618,
      "AUTOLYCUS": 3619,
      "Pet": 3620,
      "Save": 3621,
      "WILL": 3622,
      "hat": 3623,
      "wag": 3624,
      "ensi": 3625,
      "ences": 3626,
      "liar": 3627,
      "ters": 3628,
      "ENES": 3629,
      "UST": 3630,
      "disdain": 3631,
      "dig": 3632,
      "civil": 3633,
      "desperate": 3634,
      "monstrous": 3635,
      "miser": 3636,
      "guilt": 3637,
      "tenance": 3638,
      "yea": 3639,
      "chain": 3640,
      "ISBURY": 3641,
      "MARCUS": 3642,
      "killed": 3643,
      "laws": 3644,
      "pleased": 3645,
      "pict": 3646,
      "cries": 3647,
      "PROV": 3648,
      "subjects": 3649,
      "sighs": 3650,
      "easy": 3651,
      "SALISBURY": 3652,
      "POINS": 3653,
      "school": 3654,
      "clouds": 3655,
      "COMINIUS": 3656,
      "Benedick": 3657,
      "Cress": 3658,
      "Egy": 3659,
      "HOL": 3660,
      "cing": 3661,
      "flies": 3662,
      "fancy": 3663,
      "pho": 3664,
      "enforce": 3665,
      "formed": 3666,
      "weight": 3667,
      "loath": 3668,
      "shore": 3669,
      "teen": 3670,
      "STEPH": 3671,
      "iff": 3672,
      "dispatch": 3673,
      "vius": 3674,
      "abroad": 3675,
      "trans": 3676,
      "miss": 3677,
      "lived": 3678,
      "RUM": 3679,
      "bids": 3680,
      "Lucentio": 3681,
      "appears": 3682,
      "swore": 3683,
      "consider": 3684,
      "awake": 3685,
      "Flor": 3686,
      "borrow": 3687,
      "execution": 3688,
      "GHTER": 3689,
      "Britain": 3690,
      "neighbour": 3691,
      "DAUGHTER": 3692,
      "PROVOST": 3693,
      "Just": 3694,
      "Mil": 3695,
      "Twas": 3696,
      "fif": 3697,
      "fits": 3698,
      "ize": 3699,
      "langu": 3700,
      "wings": 3701,
      "orat": 3702,
      "tomb": 3703,
      "regard": 3704,
      "recei": 3705,
      "weigh": 3706,
      "ERIUS": 3707,
      "quit": 3708,
      "goodness": 3709,
      "exam": 3710,
      "warm": 3711,
      "begins": 3712,
      "BERT": 3713,
      "reasons": 3714,
      "Only": 3715,
      "seeming": 3716,
      "quality": 3717,
      "Desdemon": 3718,
      "slander": 3719,
      "treasure": 3720,
      "Cressid": 3721,
      "STEPHANO": 3722,
      "BEN": 3723,
      "Don": 3724,
      "GRUM": 3725,
      "MIAN": 3726,
      "Nature": 3727,
      "OW": 3728,
      "Set": 3729,
      "Too": 3730,
      "big": 3731,
      "fy": 3732,
      "furn": 3733,
      "mild": 3734,
      "plot": 3735,
      "fav": 3736,
      "faction": 3737,
      "consu": 3738,
      "outward": 3739,
      "sau": 3740,
      "express": 3741,
      "guest": 3742,
      "trial": 3743,
      "MARINA": 3744,
      "stomach": 3745,
      "maids": 3746,
      "happiness": 3747,
      "bride": 3748,
      "Pericles": 3749,
      "profess": 3750,
      "counterfeit": 3751,
      "supper": 3752,
      "CHARMIAN": 3753,
      "Montague": 3754,
      "Officers": 3755,
      "WILLIAM": 3756,
      "BENVOLIO": 3757,
      "GRUMIO": 3758,
      "Ac": 3759,
      "CUT": 3760,
      "Either": 3761,
      "MED": 3762,
      "OPH": 3763,
      "buck": 3764,
      "dru": 3765,
      "fed": 3766,
      "pound": 3767,
      "pick": 3768,
      "enet": 3769,
      "wide": 3770,
      "wives": 3771,
      "forsworn": 3772,
      "liv": 3773,
      "liest": 3774,
      "debt": 3775,
      "ride": 3776,
      "doors": 3777,
      "ERTES": 3778,
      "ARINE": 3779,
      "sho": 3780,
      "apt": 3781,
      "womb": 3782,
      "THARINE": 3783,
      "discourse": 3784,
      "bred": 3785,
      "whereof": 3786,
      "LAERTES": 3787,
      "countenance": 3788,
      "warlike": 3789,
      "whilst": 3790,
      "welve": 3791,
      "LUCENTIO": 3792,
      "buried": 3793,
      "hanged": 3794,
      "DIOMED": 3795,
      "burning": 3796,
      "Whilst": 3797,
      "KATHARINE": 3798,
      "gallant": 3799,
      "True": 3800,
      "MERCUT": 3801,
      "hopes": 3802,
      "towards": 3803,
      "credit": 3804,
      "direct": 3805,
      "season": 3806,
      "Tyb": 3807,
      "remembrance": 3808,
      "DIOMEDES": 3809,
      "MERCUTIO": 3810,
      "Ban": 3811,
      "Bra": 3812,
      "FOLK": 3813,
      "Mal": 3814,
      "Ret": 3815,
      "Tri": 3816,
      "_The": 3817,
      "hit": 3818,
      "pair": 3819,
      "swell": 3820,
      "wond": 3821,
      "melt": 3822,
      "Thom": 3823,
      "Andronic": 3824,
      "always": 3825,
      "lod": 3826,
      "hers": 3827,
      "making": 3828,
      "faces": 3829,
      "conde": 3830,
      "modest": 3831,
      "teeth": 3832,
      "STER": 3833,
      "sheep": 3834,
      "bled": 3835,
      "woes": 3836,
      "Bear": 3837,
      "affect": 3838,
      "standing": 3839,
      "CADE": 3840,
      "PHIL": 3841,
      "angel": 3842,
      "crowns": 3843,
      "remedy": 3844,
      "spoken": 3845,
      "painted": 3846,
      "deserve": 3847,
      "knees": 3848,
      "VOLUM": 3849,
      "lanus": 3850,
      "drops": 3851,
      "thrive": 3852,
      "mirth": 3853,
      "utenant": 3854,
      "NORFOLK": 3855,
      "Coriolanus": 3856,
      "revolt": 3857,
      "circum": 3858,
      "Desdemona": 3859,
      "Tybalt": 3860,
      "Thomas": 3861,
      "Cl": 3862,
      "Cup": 3863,
      "HE": 3864,
      "JUST": 3865,
      "Kather": 3866,
      "Nurse": 3867,
      "Pand": 3868,
      "Turn": 3869,
      "cuck": 3870,
      "dings": 3871,
      "mal": 3872,
      "niece": 3873,
      "pend": 3874,
      "arus": 3875,
      "asleep": 3876,
      "forgive": 3877,
      "feet": 3878,
      "shri": 3879,
      "ously": 3880,
      "sav": 3881,
      "mond": 3882,
      "ARDIN": 3883,
      "minds": 3884,
      "IDERIUS": 3885,
      "practi": 3886,
      "vised": 3887,
      "object": 3888,
      "sooner": 3889,
      "study": 3890,
      "wretch": 3891,
      "GUIDERIUS": 3892,
      "reverend": 3893,
      "Pistol": 3894,
      "Diome": 3895,
      "memory": 3896,
      "JAQUES": 3897,
      "particular": 3898,
      "JUSTICE": 3899,
      "Amen": 3900,
      "BAL": 3901,
      "Drom": 3902,
      "Lay": 3903,
      "None": 3904,
      "Othe": 3905,
      "Porti": 3906,
      "cats": 3907,
      "cket": 3908,
      "equal": 3909,
      "iam": 3910,
      "mil": 3911,
      "nal": 3912,
      "nurse": 3913,
      "pu": 3914,
      "pic": 3915,
      "tread": 3916,
      "yonder": 3917,
      "thrust": 3918,
      "ating": 3919,
      "chio": 3920,
      "assu": 3921,
      "ution": 3922,
      "lio": 3923,
      "ades": 3924,
      "tide": 3925,
      "ards": 3926,
      "ruchio": 3927,
      "shot": 3928,
      "cta": 3929,
      "works": 3930,
      "aptis": 3931,
      "THUR": 3932,
      "Believe": 3933,
      "RODER": 3934,
      "flow": 3935,
      "ANDER": 3936,
      "prevent": 3937,
      "clam": 3938,
      "dearest": 3939,
      "charity": 3940,
      "ULINA": 3941,
      "ransom": 3942,
      "meaning": 3943,
      "winds": 3944,
      "troop": 3945,
      "profit": 3946,
      "received": 3947,
      "PAULINA": 3948,
      "Wales": 3949,
      "innocent": 3950,
      "Petruchio": 3951,
      "Dromio": 3952,
      "Othello": 3953,
      "Portia": 3954,
      "RODERIGO": 3955,
      "Alack": 3956,
      "Fear": 3957,
      "Humph": 3958,
      "Lie": 3959,
      "Morti": 3960,
      "PIS": 3961,
      "WALL": 3962,
      "ball": 3963,
      "bunes": 3964,
      "fro": 3965,
      "honey": 3966,
      "lis": 3967,
      "loose": 3968,
      "messenger": 3969,
      "ping": 3970,
      "twelve": 3971,
      "ano": 3972,
      "envy": 3973,
      "arri": 3974,
      "Three": 3975,
      "dew": 3976,
      "adieu": 3977,
      "ram": 3978,
      "ARIUS": 3979,
      "condu": 3980,
      "shed": 3981,
      "Myself": 3982,
      "ext": 3983,
      "volio": 3984,
      "EMIO": 3985,
      "meeting": 3986,
      "vail": 3987,
      "single": 3988,
      "BELARIUS": 3989,
      "bird": 3990,
      "Lavin": 3991,
      "trumpets": 3992,
      "Gentlemen": 3993,
      "GREMIO": 3994,
      "SILVIA": 3995,
      "punish": 3996,
      "CLIFFORD": 3997,
      "OPHELIA": 3998,
      "Andronicus": 3999,
      "Cupid": 4000,
      "Humphrey": 4001,
      "PISANIO": 4002,
      "Lavinia": 4003,
      "AAR": 4004,
      "Might": 4005,
      "SLEN": 4006,
      "Scot": 4007,
      "WD": 4008,
      "doom": 4009,
      "fret": 4010,
      "flight": 4011,
      "gan": 4012,
      "gment": 4013,
      "iest": 4014,
      "naked": 4015,
      "ply": 4016,
      "sore": 4017,
      "waste": 4018,
      "thick": 4019,
      "intent": 4020,
      "ane": 4021,
      "meant": 4022,
      "belie": 4023,
      "deter": 4024,
      "ainted": 4025,
      "EST": 4026,
      "taught": 4027,
      "prosper": 4028,
      "ical": 4029,
      "plead": 4030,
      "merit": 4031,
      "undone": 4032,
      "trick": 4033,
      "William": 4034,
      "deri": 4035,
      "tempest": 4036,
      "BAWD": 4037,
      "imper": 4038,
      "Richmond": 4039,
      "Death": 4040,
      "freely": 4041,
      "uteous": 4042,
      "POLIX": 4043,
      "Romans": 4044,
      "storm": 4045,
      "atrice": 4046,
      "VOLUMNIA": 4047,
      "HECTOR": 4048,
      "Mortimer": 4049,
      "AARON": 4050,
      "SLENDER": 4051,
      "POLIXENES": 4052,
      "Den": 4053,
      "Each": 4054,
      "SOM": 4055,
      "Very": 4056,
      "bull": 4057,
      "cere": 4058,
      "chaste": 4059,
      "da": 4060,
      "eag": 4061,
      "ip": 4062,
      "lamb": 4063,
      "ining": 4064,
      "invent": 4065,
      "member": 4066,
      "lovely": 4067,
      "ALD": 4068,
      "ALBAN": 4069,
      "aged": 4070,
      "CHIE": 4071,
      "disgu": 4072,
      "nights": 4073,
      "tyran": 4074,
      "Doctor": 4075,
      "pping": 4076,
      "tract": 4077,
      "deadly": 4078,
      "daughters": 4079,
      "IDIUS": 4080,
      "taking": 4081,
      "Priam": 4082,
      "despair": 4083,
      "garden": 4084,
      "imagin": 4085,
      "maintain": 4086,
      "twixt": 4087,
      "acquaint": 4088,
      "advance": 4089,
      "kinsman": 4090,
      "dishonour": 4091,
      "figure": 4092,
      "absence": 4093,
      "ALBANY": 4094,
      "CHIEF": 4095,
      "?”": 4096,
      "AJA": 4097,
      "Baptis": 4098,
      "DOL": 4099,
      "Octa": 4100,
      "RENCE": 4101,
      "Sp": 4102,
      "Sat": 4103,
      "Tar": 4104,
      "jour": 4105,
      "list": 4106,
      "mas": 4107,
      "nine": 4108,
      "pill": 4109,
      "pie": 4110,
      "sits": 4111,
      "wink": 4112,
      "armed": 4113,
      "stable": 4114,
      "reg": 4115,
      "itude": 4116,
      "below": 4117,
      "aine": 4118,
      "ruin": 4119,
      "rule": 4120,
      "shut": 4121,
      "comfor": 4122,
      "hollow": 4123,
      "quire": 4124,
      "discover": 4125,
      "peril": 4126,
      "vious": 4127,
      "early": 4128,
      "preser": 4129,
      "DUMA": 4130,
      "prey": 4131,
      "trade": 4132,
      "traitors": 4133,
      "denied": 4134,
      "Hermia": 4135,
      "Provo": 4136,
      "dumb": 4137,
      "sickness": 4138,
      "custom": 4139,
      "obedience": 4140,
      "Protector": 4141,
      "satisfied": 4142,
      "girl": 4143,
      "sieur": 4144,
      "officer": 4145,
      "LAWRENCE": 4146,
      "Alarum": 4147,
      "CORNWALL": 4148,
      "AJAX": 4149,
      "Baptista": 4150,
      "DUMAINE": 4151,
      "Bass": 4152,
      "CU": 4153,
      "HU": 4154,
      "Hort": 4155,
      "Lear": 4156,
      "Mars": 4157,
      "NON": 4158,
      "Tran": 4159,
      "bb": 4160,
      "bought": 4161,
      "fidius": 4162,
      "pul": 4163,
      "sour": 4164,
      "err": 4165,
      "ense": 4166,
      "sees": 4167,
      "alas": 4168,
      "uses": 4169,
      "whore": 4170,
      "tidings": 4171,
      "willing": 4172,
      "estate": 4173,
      "suck": 4174,
      "shrew": 4175,
      "illo": 4176,
      "convey": 4177,
      "sometimes": 4178,
      "AMEM": 4179,
      "earnest": 4180,
      "March": 4181,
      "void": 4182,
      "prepare": 4183,
      "OFERN": 4184,
      "brings": 4185,
      "AGAMEM": 4186,
      "turned": 4187,
      "Arch": 4188,
      "virtues": 4189,
      "Once": 4190,
      "dress": 4191,
      "Peter": 4192,
      "crack": 4193,
      "renown": 4194,
      "clai": 4195,
      "despite": 4196,
      "treach": 4197,
      "picture": 4198,
      "HOLOFERN": 4199,
      "Bassanio": 4200,
      "Hortensi": 4201,
      "AGAMEMNON": 4202,
      "HOLOFERNES": 4203,
      "aim": 4204,
      "bark": 4205,
      "gon": 4206,
      "ible": 4207,
      "ired": 4208,
      "render": 4209,
      "tance": 4210,
      "vity": 4211,
      "thie": 4212,
      "haps": 4213,
      "leans": 4214,
      "becomes": 4215,
      "Toby": 4216,
      "pron": 4217,
      "Help": 4218,
      "sacred": 4219,
      "apart": 4220,
      "saying": 4221,
      "prophe": 4222,
      "spare": 4223,
      "perj": 4224,
      "exceed": 4225,
      "abuse": 4226,
      "guess": 4227,
      "voices": 4228,
      "tedious": 4229,
      "MARTIUS": 4230,
      "BERRY": 4231,
      "sander": 4232,
      "clothe": 4233,
      "sounds": 4234,
      "Theseus": 4235,
      "streets": 4236,
      "rash": 4237,
      "human": 4238,
      "humbly": 4239,
      "Servants": 4240,
      "image": 4241,
      "divine": 4242,
      "Quick": 4243,
      "Aufidius": 4244,
      "throat": 4245,
      "modesty": 4246,
      "Lysander": 4247,
      "complex": 4248,
      "Cha": 4249,
      "Dear": 4250,
      "GBERRY": 4251,
      "Has": 4252,
      "ION": 4253,
      "Isa": 4254,
      "Stri": 4255,
      "VII": 4256,
      "Whither": 4257,
      "YER": 4258,
      "bla": 4259,
      "fun": 4260,
      "names": 4261,
      "tap": 4262,
      "”.": 4263,
      "iny": 4264,
      "ona": 4265,
      "realm": 4266,
      "begu": 4267,
      "lig": 4268,
      "ripe": 4269,
      "rible": 4270,
      "tier": 4271,
      "tied": 4272,
      "este": 4273,
      "commission": 4274,
      "sage": 4275,
      "therein": 4276,
      "ROSS": 4277,
      "monu": 4278,
      "greatest": 4279,
      "strang": 4280,
      "CAIUS": 4281,
      "dying": 4282,
      "everything": 4283,
      "turns": 4284,
      "ducats": 4285,
      "gener": 4286,
      "DOCTOR": 4287,
      "DOGBERRY": 4288,
      "empty": 4289,
      "attending": 4290,
      "groan": 4291,
      "birds": 4292,
      "salt": 4293,
      "dares": 4294,
      "suddenly": 4295,
      "horns": 4296,
      "suspect": 4297,
      "Camillo": 4298,
      "victory": 4299,
      "authority": 4300,
      "HUBERT": 4301,
      "Hortensio": 4302,
      "Burg": 4303,
      "Chi": 4304,
      "Cour": 4305,
      "Makes": 4306,
      "NI": 4307,
      "Oli": 4308,
      "Sl": 4309,
      "TAM": 4310,
      "Wind": 4311,
      "ZAL": 4312,
      "dit": 4313,
      "fin": 4314,
      "gree": 4315,
      "numb": 4316,
      "page": 4317,
      "inches": 4318,
      "lled": 4319,
      "search": 4320,
      "assure": 4321,
      "forbear": 4322,
      "tily": 4323,
      "ERIL": 4324,
      "shallow": 4325,
      "sire": 4326,
      "agree": 4327,
      "provo": 4328,
      "Beatrice": 4329,
      "disposition": 4330,
      "acc": 4331,
      "stranger": 4332,
      "mischief": 4333,
      "undy": 4334,
      "fiery": 4335,
      "vol": 4336,
      "purpos": 4337,
      "Ross": 4338,
      "Thanks": 4339,
      "stock": 4340,
      "wax": 4341,
      "stream": 4342,
      "wallow": 4343,
      "vengeance": 4344,
      "Capi": 4345,
      "PARIS": 4346,
      "sky": 4347,
      "Troj": 4348,
      "_Sings": 4349,
      "GONZAL": 4350,
      "GONERIL": 4351,
      "CHARLES": 4352,
      "FABIAN": 4353,
      "Burgundy": 4354,
      "GONZALO": 4355,
      "BLE": 4356,
      "El": 4357,
      "IBAN": 4358,
      "MIR": 4359,
      "WIT": 4360,
      "boot": 4361,
      "cave": 4362,
      "hung": 4363,
      "ient": 4364,
      "ray": 4365,
      "snow": 4366,
      "smo": 4367,
      "ws": 4368,
      "thur": 4369,
      "thum": 4370,
      "token": 4371,
      "noon": 4372,
      "retire": 4373,
      "chide": 4374,
      "hid": 4375,
      "ghost": 4376,
      "device": 4377,
      "INUS": 4378,
      "poli": 4379,
      "worn": 4380,
      "Forest": 4381,
      "lets": 4382,
      "seeing": 4383,
      "hereafter": 4384,
      "Behold": 4385,
      "account": 4386,
      "plant": 4387,
      "brook": 4388,
      "party": 4389,
      "ANDA": 4390,
      "glorious": 4391,
      "prize": 4392,
      "Franc": 4393,
      "oler": 4394,
      "Alb": 4395,
      "garments": 4396,
      "Arthur": 4397,
      "vision": 4398,
      "Lucre": 4399,
      "phes": 4400,
      "CALIBAN": 4401,
      "KATHERINE": 4402,
      "Plant": 4403,
      "Helena": 4404,
      "Brother": 4405,
      "llenge": 4406,
      "LYSANDER": 4407,
      "violent": 4408,
      "ERSET": 4409,
      "SOMERSET": 4410,
      "Olivia": 4411,
      "MIRANDA": 4412,
      "WITCH": 4413,
      "Francis": 4414,
      "COL": 4415,
      "Coun": 4416,
      "Gon": 4417,
      "NINUS": 4418,
      "Pres": 4419,
      "Pyra": 4420,
      "SAT": 4421,
      "WEST": 4422,
      "bill": 4423,
      "brows": 4424,
      "bility": 4425,
      "chast": 4426,
      "iz": 4427,
      "rush": 4428,
      "sway": 4429,
      "sthum": 4430,
      "tort": 4431,
      "zz": 4432,
      "ths": 4433,
      "thorn": 4434,
      "ising": 4435,
      "esti": 4436,
      "hazard": 4437,
      "owl": 4438,
      "delay": 4439,
      "alo": 4440,
      "aded": 4441,
      "raise": 4442,
      "ENCR": 4443,
      "ARENCE": 4444,
      "morn": 4445,
      "contro": 4446,
      "mogen": 4447,
      "quin": 4448,
      "boast": 4449,
      "bodies": 4450,
      "appreh": 4451,
      "ult": 4452,
      "accord": 4453,
      "ANTZ": 4454,
      "served": 4455,
      "ILLE": 4456,
      "merch": 4457,
      "fice": 4458,
      "gentlewoman": 4459,
      "URNINUS": 4460,
      "QUIN": 4461,
      "followers": 4462,
      "hark": 4463,
      "sentence": 4464,
      "ROSENCR": 4465,
      "minute": 4466,
      "build": 4467,
      "sleeping": 4468,
      "Posthum": 4469,
      "Leave": 4470,
      "crave": 4471,
      "desert": 4472,
      "Boy": 4473,
      "CLARENCE": 4474,
      "portion": 4475,
      "ignorant": 4476,
      "twain": 4477,
      "contrary": 4478,
      "durst": 4479,
      "Egypt": 4480,
      "TAMORA": 4481,
      "Capitol": 4482,
      "Pyramus": 4483,
      "SATURNINUS": 4484,
      "ROSENCRANTZ": 4485,
      "Posthumus": 4486,
      "Fe": 4487,
      "Hap": 4488,
      "Imogen": 4489,
      "Pho": 4490,
      "Tr": 4491,
      "bent": 4492,
      "mess": 4493,
      "mbel": 4494,
      "rt": 4495,
      "sides": 4496,
      "wont": 4497,
      "”,": 4498,
      "thrown": 4499,
      "inher": 4500,
      "store": 4501,
      "recover": 4502,
      "leap": 4503,
      "iron": 4504,
      "root": 4505,
      "alter": 4506,
      "soci": 4507,
      "advice": 4508,
      "copy": 4509,
      "ARIEL": 4510,
      "prise": 4511,
      "concer": 4512,
      "blown": 4513,
      "fathers": 4514,
      "tells": 4515,
      "ETER": 4516,
      "ETTA": 4517,
      "Orleans": 4518,
      "prick": 4519,
      "challenge": 4520,
      "finds": 4521,
      "parent": 4522,
      "udge": 4523,
      "following": 4524,
      "confer": 4525,
      "confound": 4526,
      "LUCETTA": 4527,
      "smooth": 4528,
      "atience": 4529,
      "window": 4530,
      "Truly": 4531,
      "beaten": 4532,
      "frame": 4533,
      "reverence": 4534,
      "gifts": 4535,
      "Cymbel": 4536,
      "About": 4537,
      "EXETER": 4538,
      "HERMIA": 4539,
      "Provost": 4540,
      "Tranio": 4541,
      "Cymbeline": 4542,
      ",’": 4543,
      "Agame": 4544,
      "BY": 4545,
      "DIANA": 4546,
      "FLA": 4547,
      "Hon": 4548,
      "LOR": 4549,
      "NER": 4550,
      "Old": 4551,
      "Sa": 4552,
      "TOM": 4553,
      "Whe": 4554,
      "ZO": 4555,
      "bind": 4556,
      "crow": 4557,
      "don": 4558,
      "fil": 4559,
      "luck": 4560,
      "pat": 4561,
      "swallow": 4562,
      "wn": 4563,
      "ertes": 4564,
      "medi": 4565,
      "vex": 4566,
      "beyond": 4567,
      "forfeit": 4568,
      "whores": 4569,
      "tive": 4570,
      "felt": 4571,
      "feather": 4572,
      "ENZO": 4573,
      "ARCH": 4574,
      "ARVIR": 4575,
      "INO": 4576,
      "lap": 4577,
      "Exeter": 4578,
      "appet": 4579,
      "spar": 4580,
      "spake": 4581,
      "speci": 4582,
      "hearted": 4583,
      "lando": 4584,
      "fairest": 4585,
      "graces": 4586,
      "LAIN": 4587,
      "misery": 4588,
      "scene": 4589,
      "flourish": 4590,
      "fier": 4591,
      "Orlando": 4592,
      "assur": 4593,
      "bade": 4594,
      "ships": 4595,
      "puts": 4596,
      "chair": 4597,
      "ctions": 4598,
      "undertake": 4599,
      "empress": 4600,
      "AGUS": 4601,
      "runs": 4602,
      "prisoners": 4603,
      "Julia": 4604,
      "mnon": 4605,
      "delivered": 4606,
      "BOTTOM": 4607,
      "Between": 4608,
      "limbs": 4609,
      "GAV": 4610,
      "Alexand": 4611,
      "pointed": 4612,
      "Music": 4613,
      "reputation": 4614,
      "Clown": 4615,
      "Agamemnon": 4616,
      "FLAVIUS": 4617,
      "LORENZO": 4618,
      "ARVIRAGUS": 4619,
      "Ari": 4620,
      "Draw": 4621,
      "Emp": 4622,
      "Many": 4623,
      "Rep": 4624,
      "cou": 4625,
      "fant": 4626,
      "pent": 4627,
      "slight": 4628,
      "sought": 4629,
      "sty": 4630,
      "behalf": 4631,
      "utes": 4632,
      "rock": 4633,
      "ado": 4634,
      "dogs": 4635,
      "super": 4636,
      "contempt": 4637,
      "seless": 4638,
      "board": 4639,
      "worm": 4640,
      "appare": 4641,
      "LEY": 4642,
      "proclaim": 4643,
      "ELLE": 4644,
      "offended": 4645,
      "friendship": 4646,
      "merri": 4647,
      "babe": 4648,
      "curr": 4649,
      "brains": 4650,
      "bush": 4651,
      "pleasures": 4652,
      "smiles": 4653,
      "sorrows": 4654,
      "Cannot": 4655,
      "promised": 4656,
      "servants": 4657,
      "dreams": 4658,
      "knights": 4659,
      "shortly": 4660,
      "castle": 4661,
      "darkness": 4662,
      "ambition": 4663,
      "Gentleman": 4664,
      "FLOR": 4665,
      "PUCELLE": 4666,
      "PHILIP": 4667,
      "practice": 4668,
      "conduct": 4669,
      "complexion": 4670,
      "policy": 4671,
      "Plantag": 4672,
      "Adie": 4673,
      "Bre": 4674,
      "FIDIUS": 4675,
      "Him": 4676,
      "Pad": 4677,
      "Sure": 4678,
      "citizens": 4679,
      "iliar": 4680,
      "knot": 4681,
      "length": 4682,
      "mat": 4683,
      "inite": 4684,
      "stick": 4685,
      "rede": 4686,
      "edge": 4687,
      "degree": 4688,
      "adies": 4689,
      "unknown": 4690,
      "logue": 4691,
      "idence": 4692,
      "prus": 4693,
      "moreland": 4694,
      "ured": 4695,
      "Young": 4696,
      "ause": 4697,
      "CHAM": 4698,
      "Thisbe": 4699,
      "speaking": 4700,
      "fairly": 4701,
      "parted": 4702,
      "scri": 4703,
      "score": 4704,
      "check": 4705,
      "ISH": 4706,
      "BERLAIN": 4707,
      "Roderi": 4708,
      "followed": 4709,
      "cares": 4710,
      "SHEPH": 4711,
      "IMP": 4712,
      "AUFIDIUS": 4713,
      "Hail": 4714,
      "Laertes": 4715,
      "Whiles": 4716,
      "IZEL": 4717,
      "fingers": 4718,
      "Cyprus": 4719,
      "BIANCA": 4720,
      "Westmoreland": 4721,
      "devise": 4722,
      "Princess": 4723,
      "FLORIZEL": 4724,
      "Adieu": 4725,
      "CHAMBERLAIN": 4726,
      "Roderigo": 4727,
      "SHEPHERD": 4728,
      "10": 4729,
      "AENE": 4730,
      "BISH": 4731,
      "ELE": 4732,
      "Ephes": 4733,
      "Horat": 4734,
      "Mur": 4735,
      "Much": 4736,
      "NA": 4737,
      "SIMP": 4738,
      "Wr": 4739,
      "bishop": 4740,
      "pite": 4741,
      "pted": 4742,
      "rhy": 4743,
      "sink": 4744,
      "twill": 4745,
      "inv": 4746,
      "intell": 4747,
      "isle": 4748,
      "stat": 4749,
      "hall": 4750,
      "lect": 4751,
      "celet": 4752,
      "asp": 4753,
      "ros": 4754,
      "weeds": 4755,
      "sold": 4756,
      "rag": 4757,
      "locks": 4758,
      "herald": 4759,
      "ANOR": 4760,
      "shr": 4761,
      "tame": 4762,
      "vessel": 4763,
      "prote": 4764,
      "discre": 4765,
      "ounce": 4766,
      "thinking": 4767,
      "accus": 4768,
      "ICER": 4769,
      "LAUN": 4770,
      "wrought": 4771,
      "assad": 4772,
      "bawd": 4773,
      "CELET": 4774,
      "compass": 4775,
      "dearly": 4776,
      "faced": 4777,
      "Although": 4778,
      "Prosper": 4779,
      "repair": 4780,
      "lasting": 4781,
      "stead": 4782,
      "pack": 4783,
      "bridge": 4784,
      "besides": 4785,
      "barren": 4786,
      "strain": 4787,
      "belly": 4788,
      "signs": 4789,
      "HERO": 4790,
      "infinite": 4791,
      "affections": 4792,
      "Pisanio": 4793,
      "mourn": 4794,
      "stroke": 4795,
      "decay": 4796,
      "Justice": 4797,
      "pieces": 4798,
      "monument": 4799,
      "Slender": 4800,
      "Alexandria": 4801,
      "Plantagenet": 4802,
      "Padua": 4803,
      "AENEAS": 4804,
      "BISHOP": 4805,
      "ELEANOR": 4806,
      "Horatio": 4807,
      "LAUNCELET": 4808,
      "CELL": 4809,
      "Charm": 4810,
      "Full": 4811,
      "OC": 4812,
      "Pers": 4813,
      "aul": 4814,
      "bi": 4815,
      "bast": 4816,
      "cue": 4817,
      "dess": 4818,
      "dows": 4819,
      "event": 4820,
      "fate": 4821,
      "mood": 4822,
      "sat": 4823,
      "island": 4824,
      "havi": 4825,
      "seest": 4826,
      "beloved": 4827,
      "Through": 4828,
      "deer": 4829,
      "admit": 4830,
      "coz": 4831,
      "coat": 4832,
      "doctor": 4833,
      "until": 4834,
      "lying": 4835,
      "confirm": 4836,
      "comb": 4837,
      "complain": 4838,
      "wholes": 4839,
      "perforce": 4840,
      "sweat": 4841,
      "friar": 4842,
      "ANTIO": 4843,
      "desc": 4844,
      "market": 4845,
      "SCA": 4846,
      "north": 4847,
      "pressed": 4848,
      "oppos": 4849,
      "prefer": 4850,
      "joint": 4851,
      "charged": 4852,
      "whither": 4853,
      "kindly": 4854,
      "Robert": 4855,
      "Remember": 4856,
      "LUCIANA": 4857,
      "knit": 4858,
      "knaves": 4859,
      "stol": 4860,
      "strife": 4861,
      "contented": 4862,
      "affli": 4863,
      "groans": 4864,
      "hateful": 4865,
      "bottom": 4866,
      "blessing": 4867,
      "goddess": 4868,
      "COUNTRY": 4869,
      "odds": 4870,
      "Coll": 4871,
      "fatal": 4872,
      "elder": 4873,
      "acquainted": 4874,
      "bounty": 4875,
      "Milan": 4876,
      "Malvolio": 4877,
      "Tarquin": 4878,
      "thieves": 4879,
      "clothes": 4880,
      "Windsor": 4881,
      "Lucrece": 4882,
      "Whether": 4883,
      "appetite": 4884,
      "Came": 4885,
      "DEN": 4886,
      "Host": 4887,
      "LAN": 4888,
      "LON": 4889,
      "Ox": 4890,
      "PAT": 4891,
      "Tamor": 4892,
      "Wo": 4893,
      "bag": 4894,
      "bran": 4895,
      "cli": 4896,
      "dagger": 4897,
      "ians": 4898,
      "mask": 4899,
      "pour": 4900,
      "tall": 4901,
      "yo": 4902,
      "ering": 4903,
      "hears": 4904,
      "stret": 4905,
      "record": 4906,
      "lied": 4907,
      "weather": 4908,
      "raid": 4909,
      "unate": 4910,
      "peers": 4911,
      "moment": 4912,
      "Noble": 4913,
      "displeasure": 4914,
      "perish": 4915,
      "afraid": 4916,
      "abhor": 4917,
      "ENET": 4918,
      "ILIUS": 4919,
      "places": 4920,
      "prayer": 4921,
      "charm": 4922,
      "native": 4923,
      "IDES": 4924,
      "pract": 4925,
      "beaut": 4926,
      "MONIDES": 4927,
      "grey": 4928,
      "wants": 4929,
      "mile": 4930,
      "Having": 4931,
      "creatures": 4932,
      "SIMONIDES": 4933,
      "wounded": 4934,
      "familiar": 4935,
      "conceit": 4936,
      "urio": 4937,
      "Hubert": 4938,
      "solute": 4939,
      "Greek": 4940,
      "rotten": 4941,
      "language": 4942,
      "Saturn": 4943,
      "numbers": 4944,
      "Ariel": 4945,
      "Ephesus": 4946,
      "Murder": 4947,
      "wholesome": 4948,
      "COUNTRYMAN": 4949,
      "Tamora": 4950,
      "Cer": 4951,
      "Cry": 4952,
      "Cates": 4953,
      "Dun": 4954,
      "Every": 4955,
      "Ladies": 4956,
      "Mess": 4957,
      "Play": 4958,
      "SUR": 4959,
      "Wit": 4960,
      "bours": 4961,
      "cam": 4962,
      "fran": 4963,
      "mill": 4964,
      "sings": 4965,
      "reward": 4966,
      "reach": 4967,
      "vet": 4968,
      "belong": 4969,
      "forsooth": 4970,
      "deb": 4971,
      "admir": 4972,
      "adventure": 4973,
      "raven": 4974,
      "mov": 4975,
      "ONSO": 4976,
      "teous": 4977,
      "ORGE": 4978,
      "ALONSO": 4979,
      "OLD": 4980,
      "proach": 4981,
      "extrem": 4982,
      "cians": 4983,
      "Anon": 4984,
      "begg": 4985,
      "reading": 4986,
      "carried": 4987,
      "substance": 4988,
      "banqu": 4989,
      "beauteous": 4990,
      "spot": 4991,
      "judgment": 4992,
      "leness": 4993,
      "defence": 4994,
      "POLY": 4995,
      "instrument": 4996,
      "midnight": 4997,
      "GEORGE": 4998,
      "Brook": 4999,
      "companion": 5000,
      "WOO": 5001,
      "difference": 5002,
      "deceived": 5003,
      "whisper": 5004,
      "favours": 5005,
      "Banquo": 5006,
      "Phoe": 5007,
      "GAVILLE": 5008,
      "Charmian": 5009,
      "Person": 5010,
      "LONGAVILLE": 5011,
      "Oxford": 5012,
      "Catesby": 5013,
      "AB": 5014,
      "Ap": 5015,
      "Aar": 5016,
      "Eno": 5017,
      "Find": 5018,
      "HIP": 5019,
      "OUT": 5020,
      "PIR": 5021,
      "Soft": 5022,
      "Tha": 5023,
      "VIN": 5024,
      "Winches": 5025,
      "alike": 5026,
      "eight": 5027,
      "hun": 5028,
      "lus": 5029,
      "mong": 5030,
      "nice": 5031,
      "paint": 5032,
      "west": 5033,
      "infect": 5034,
      "stage": 5035,
      "nobly": 5036,
      "ldom": 5037,
      "irt": 5038,
      "wears": 5039,
      "aly": 5040,
      "advised": 5041,
      "cope": 5042,
      "willingly": 5043,
      "nephe": 5044,
      "ANLEY": 5045,
      "shun": 5046,
      "combat": 5047,
      "mult": 5048,
      "STANLEY": 5049,
      "boar": 5050,
      "blunt": 5051,
      "wolf": 5052,
      "access": 5053,
      "fox": 5054,
      "breach": 5055,
      "abide": 5056,
      "marks": 5057,
      "fairer": 5058,
      "scape": 5059,
      "_Exit_": 5060,
      "Does": 5061,
      "Marina": 5062,
      "CASCA": 5063,
      "gues": 5064,
      "privile": 5065,
      "giving": 5066,
      "cloud": 5067,
      "began": 5068,
      "GOWER": 5069,
      "wronged": 5070,
      "justly": 5071,
      "crowned": 5072,
      "villains": 5073,
      "creep": 5074,
      "IMACH": 5075,
      "calf": 5076,
      "calm": 5077,
      "bella": 5078,
      "mouths": 5079,
      "Trump": 5080,
      "feeling": 5081,
      "destroy": 5082,
      "grieve": 5083,
      "stained": 5084,
      "MALCOL": 5085,
      "Hugh": 5086,
      "months": 5087,
      "LYSIMACH": 5088,
      "jealousy": 5089,
      "reckon": 5090,
      "benefit": 5091,
      "weapons": 5092,
      "Diana": 5093,
      "cuckold": 5094,
      "special": 5095,
      "POLYTA": 5096,
      "Aaron": 5097,
      "Enobar": 5098,
      "HIPPOLYTA": 5099,
      "Winchester": 5100,
      "MALCOLM": 5101,
      "LYSIMACHUS": 5102,
      "BIA": 5103,
      "BION": 5104,
      "Corn": 5105,
      "DELLO": 5106,
      "Gar": 5107,
      "Gra": 5108,
      "GREY": 5109,
      "OFF": 5110,
      "Str": 5111,
      "TRIN": 5112,
      "bite": 5113,
      "freed": 5114,
      "gather": 5115,
      "lun": 5116,
      "phi": 5117,
      "sins": 5118,
      "tus": 5119,
      "task": 5120,
      "wander": 5121,
      "anley": 5122,
      "ored": 5123,
      "beam": 5124,
      "also": 5125,
      "although": 5126,
      "tired": 5127,
      "mag": 5128,
      "ARL": 5129,
      "ALCI": 5130,
      "handker": 5131,
      "accept": 5132,
      "ATES": 5133,
      "tled": 5134,
      "wrest": 5135,
      "cheap": 5136,
      "glas": 5137,
      "Hereford": 5138,
      "URTH": 5139,
      "travel": 5140,
      "ladyship": 5141,
      "CONSTA": 5142,
      "afterwards": 5143,
      "slew": 5144,
      "farther": 5145,
      "Stanley": 5146,
      "subtle": 5147,
      "sleeps": 5148,
      "hangs": 5149,
      "hanging": 5150,
      "stronger": 5151,
      "kisses": 5152,
      "penny": 5153,
      "Didst": 5154,
      "devils": 5155,
      "silent": 5156,
      "woeful": 5157,
      "huge": 5158,
      "books": 5159,
      "lusty": 5160,
      "CAPTA": 5161,
      "Welsh": 5162,
      "remains": 5163,
      "FOURTH": 5164,
      "banishment": 5165,
      "Senators": 5166,
      "ignorance": 5167,
      "tribute": 5168,
      "physic": 5169,
      "Grecian": 5170,
      "wondrous": 5171,
      "assured": 5172,
      "acquaintance": 5173,
      "CULO": 5174,
      "Chamber": 5175,
      "purposes": 5176,
      "Trojan": 5177,
      "ARCHBISHOP": 5178,
      "fierce": 5179,
      "banquet": 5180,
      "Enobarbus": 5181,
      "BIADES": 5182,
      "BIONDELLO": 5183,
      "OFFICER": 5184,
      "TRINCULO": 5185,
      "ALCIBIADES": 5186,
      "CONSTABLE": 5187,
      "BORA": 5188,
      "Fall": 5189,
      "NES": 5190,
      "OX": 5191,
      "Pat": 5192,
      "PID": 5193,
      "WOR": 5194,
      "WALD": 5195,
      "_Gi": 5196,
      "glove": 5197,
      "sine": 5198,
      "swer": 5199,
      "tarry": 5200,
      "ums": 5201,
      "inous": 5202,
      "inform": 5203,
      "arrest": 5204,
      "height": 5205,
      "nobles": 5206,
      "repe": 5207,
      "rejo": 5208,
      "dece": 5209,
      "ala": 5210,
      "unfold": 5211,
      "amiss": 5212,
      "tick": 5213,
      "estor": 5214,
      "mak": 5215,
      "male": 5216,
      "arts": 5217,
      "potent": 5218,
      "quench": 5219,
      "bolt": 5220,
      "ified": 5221,
      "proportion": 5222,
      "ELAND": 5223,
      "ROCL": 5224,
      "bread": 5225,
      "partly": 5226,
      "serves": 5227,
      "heartily": 5228,
      "undo": 5229,
      "lief": 5230,
      "assist": 5231,
      "shire": 5232,
      "impossible": 5233,
      "charac": 5234,
      "ULT": 5235,
      "temple": 5236,
      "pleasant": 5237,
      "earthly": 5238,
      "falsehood": 5239,
      "senses": 5240,
      "BOULT": 5241,
      "villainy": 5242,
      "zeal": 5243,
      "Contents": 5244,
      "AUMER": 5245,
      "craft": 5246,
      "drew": 5247,
      "attended": 5248,
      "countrymen": 5249,
      "petition": 5250,
      "pitch": 5251,
      "OLIVER": 5252,
      "odd": 5253,
      "torment": 5254,
      "wrack": 5255,
      "eternal": 5256,
      "passage": 5257,
      "entertainment": 5258,
      "OSWALD": 5259,
      "MORELAND": 5260,
      "prepared": 5261,
      "Douglas": 5262,
      "dignity": 5263,
      "Pandarus": 5264,
      "milk": 5265,
      "Quickly": 5266,
      "Strike": 5267,
      "WESTMORELAND": 5268,
      "QUINCE": 5269,
      "whoreson": 5270,
      "apparel": 5271,
      "PATROCL": 5272,
      "yoke": 5273,
      "WOOER": 5274,
      "CAPTAIN": 5275,
      "BORACHIO": 5276,
      "NESTOR": 5277,
      "AUMERLE": 5278,
      "PATROCLUS": 5279,
      "Cousin": 5280,
      "CARDIN": 5281,
      "Dram": 5282,
      "Fool": 5283,
      "Ger": 5284,
      "Pu": 5285,
      "Pol": 5286,
      "Send": 5287,
      "_I": 5288,
      "_Flourish": 5289,
      "bab": 5290,
      "blast": 5291,
      "groom": 5292,
      "hounds": 5293,
      "lain": 5294,
      "och": 5295,
      "plo": 5296,
      "pace": 5297,
      "pause": 5298,
      "xen": 5299,
      "zo": 5300,
      "inc": 5301,
      "inst": 5302,
      "inward": 5303,
      "orch": 5304,
      "envious": 5305,
      "onius": 5306,
      "nobl": 5307,
      "nobility": 5308,
      "begot": 5309,
      "chid": 5310,
      "hie": 5311,
      "forces": 5312,
      "roses": 5313,
      "weal": 5314,
      "soms": 5315,
      "rab": 5316,
      "rail": 5317,
      "uncelet": 5318,
      "urk": 5319,
      "ENCH": 5320,
      "pear": 5321,
      "poet": 5322,
      "pomp": 5323,
      "sacri": 5324,
      "knowing": 5325,
      "thereof": 5326,
      "ica": 5327,
      "icious": 5328,
      "peri": 5329,
      "perfection": 5330,
      "trun": 5331,
      "marvel": 5332,
      "friendly": 5333,
      "gently": 5334,
      "mistake": 5335,
      "scur": 5336,
      "betwixt": 5337,
      "Maria": 5338,
      "gious": 5339,
      "cler": 5340,
      "Hercul": 5341,
      "harsh": 5342,
      "played": 5343,
      "Until": 5344,
      "Sebast": 5345,
      "crease": 5346,
      "wishes": 5347,
      "pense": 5348,
      "weeps": 5349,
      "hardly": 5350,
      "passing": 5351,
      "Launcelet": 5352,
      "slaves": 5353,
      "addition": 5354,
      "urious": 5355,
      "basket": 5356,
      "Antipho": 5357,
      "FRENCH": 5358,
      "bleeding": 5359,
      "provided": 5360,
      "committed": 5361,
      "furnish": 5362,
      "shrewd": 5363,
      "Personæ": 5364,
      "CARDINAL": 5365,
      "Dramatis": 5366,
      "Polonius": 5367,
      "Hercules": 5368,
      "Sebastian": 5369,
      "11": 5370,
      "Aene": 5371,
      "Bastard": 5372,
      "Father": 5373,
      "Gen": 5374,
      "Gaunt": 5375,
      "Neither": 5376,
      "OUS": 5377,
      "Paul": 5378,
      "blo": 5379,
      "cand": 5380,
      "cool": 5381,
      "dame": 5382,
      "ev": 5383,
      "east": 5384,
      "fron": 5385,
      "oak": 5386,
      "slip": 5387,
      "tles": 5388,
      "ued": 5389,
      "yester": 5390,
      "”?": 5391,
      "stab": 5392,
      "sets": 5393,
      "league": 5394,
      "bey": 5395,
      "befall": 5396,
      "behavi": 5397,
      "assa": 5398,
      "owne": 5399,
      "del": 5400,
      "decl": 5401,
      "wept": 5402,
      "kets": 5403,
      "soever": 5404,
      "coll": 5405,
      "dozen": 5406,
      "unhappy": 5407,
      "unnatural": 5408,
      "loten": 5409,
      "peas": 5410,
      "mage": 5411,
      "lace": 5412,
      "shout": 5413,
      "STANCE": 5414,
      "appointed": 5415,
      "ulous": 5416,
      "LEPID": 5417,
      "spit": 5418,
      "disease": 5419,
      "otherwise": 5420,
      "dient": 5421,
      "exped": 5422,
      "acy": 5423,
      "ICANUS": 5424,
      "shield": 5425,
      "CONSTANCE": 5426,
      "ISSA": 5427,
      "MARCELL": 5428,
      "park": 5429,
      "cloak": 5430,
      "stays": 5431,
      "bray": 5432,
      "faithful": 5433,
      "bank": 5434,
      "strive": 5435,
      "observ": 5436,
      "Mayor": 5437,
      "contents": 5438,
      "sends": 5439,
      "deserved": 5440,
      "Cominius": 5441,
      "HELICANUS": 5442,
      "written": 5443,
      "essengers": 5444,
      "skin": 5445,
      "gait": 5446,
      "secure": 5447,
      "torch": 5448,
      "Guild": 5449,
      "suspic": 5450,
      "Berowne": 5451,
      "necessity": 5452,
      "vouchsafe": 5453,
      "ITHOUS": 5454,
      "fixed": 5455,
      "_Within_": 5456,
      "circumstance": 5457,
      "tyranny": 5458,
      "NERISSA": 5459,
      "mediate": 5460,
      "Emperor": 5461,
      "PIRITHOUS": 5462,
      "Antipholus": 5463,
      "Aeneas": 5464,
      "LEPIDUS": 5465,
      "MARCELLUS": 5466,
      "),": 5467,
      "CESTER": 5468,
      "Eros": 5469,
      "Found": 5470,
      "GUN": 5471,
      "Hot": 5472,
      "IONE": 5473,
      "Jup": 5474,
      "Lep": 5475,
      "NYM": 5476,
      "Rather": 5477,
      "Syra": 5478,
      "Touch": 5479,
      "WELL": 5480,
      "aled": 5481,
      "avoid": 5482,
      "bin": 5483,
      "bay": 5484,
      "crest": 5485,
      "lat": 5486,
      "lent": 5487,
      "mate": 5488,
      "nes": 5489,
      "nation": 5490,
      "oce": 5491,
      "pil": 5492,
      "pate": 5493,
      "slay": 5494,
      "ware": 5495,
      "za": 5496,
      "zing": 5497,
      "aries": 5498,
      "attempt": 5499,
      "lling": 5500,
      "toil": 5501,
      "sting": 5502,
      "stamp": 5503,
      "hail": 5504,
      "haunt": 5505,
      "sex": 5506,
      "bels": 5507,
      "asy": 5508,
      "edi": 5509,
      "deaf": 5510,
      "wither": 5511,
      "alle": 5512,
      "doms": 5513,
      "aming": 5514,
      "ambit": 5515,
      "idus": 5516,
      "contain": 5517,
      "pocket": 5518,
      "sple": 5519,
      "perf": 5520,
      "accuse": 5521,
      "plent": 5522,
      "monarch": 5523,
      "Italy": 5524,
      "tricks": 5525,
      "sses": 5526,
      "pursu": 5527,
      "gress": 5528,
      "everyone": 5529,
      "slept": 5530,
      "plays": 5531,
      "higher": 5532,
      "smiling": 5533,
      "visible": 5534,
      "commanded": 5535,
      "coron": 5536,
      "corre": 5537,
      "MENAS": 5538,
      "hairs": 5539,
      "GUIL": 5540,
      "wedding": 5541,
      "beasts": 5542,
      "ashes": 5543,
      "conquest": 5544,
      "Countess": 5545,
      "troubled": 5546,
      "Better": 5547,
      "possession": 5548,
      "HERMIONE": 5549,
      "tailor": 5550,
      "_Reads_": 5551,
      "drums": 5552,
      "Diomed": 5553,
      "THURIO": 5554,
      "Scotland": 5555,
      "journey": 5556,
      "Archbishop": 5557,
      "discretion": 5558,
      "OCTA": 5559,
      "handkerchief": 5560,
      "WORCESTER": 5561,
      "Jupiter": 5562,
      "Lepidus": 5563,
      "ambitious": 5564,
      "!’": 5565,
      "Apo": 5566,
      "Bishop": 5567,
      "Cas": 5568,
      "Duch": 5569,
      "Lor": 5570,
      "Ner": 5571,
      "Part": 5572,
      "Sit": 5573,
      "Uly": 5574,
      "Vill": 5575,
      "blot": 5576,
      "lines": 5577,
      "nar": 5578,
      "pup": 5579,
      "squ": 5580,
      "tory": 5581,
      "inch": 5582,
      "incen": 5583,
      "ank": 5584,
      "anus": 5585,
      "anti": 5586,
      "thed": 5587,
      "enius": 5588,
      "lles": 5589,
      "toy": 5590,
      "remor": 5591,
      "rebell": 5592,
      "hip": 5593,
      "roo": 5594,
      "depend": 5595,
      "oots": 5596,
      "terror": 5597,
      "unity": 5598,
      "load": 5599,
      "wills": 5600,
      "geon": 5601,
      "INCH": 5602,
      "shown": 5603,
      "conceive": 5604,
      "qua": 5605,
      "iler": 5606,
      "THA": 5607,
      "spect": 5608,
      "Goths": 5609,
      "offers": 5610,
      "offices": 5611,
      "design": 5612,
      "fairy": 5613,
      "looking": 5614,
      "council": 5615,
      "wrink": 5616,
      "lieutenant": 5617,
      "achie": 5618,
      "umn": 5619,
      "trim": 5620,
      "TIT": 5621,
      "fortunate": 5622,
      "purchase": 5623,
      "gild": 5624,
      "angels": 5625,
      "Cade": 5626,
      "showed": 5627,
      "clus": 5628,
      "kindred": 5629,
      "younger": 5630,
      "answered": 5631,
      "surely": 5632,
      "enterprise": 5633,
      "visage": 5634,
      "growing": 5635,
      "humours": 5636,
      "Bohe": 5637,
      "PETER": 5638,
      "Commend": 5639,
      "bravely": 5640,
      "nails": 5641,
      "Venus": 5642,
      "tremble": 5643,
      "Among": 5644,
      "Menenius": 5645,
      "services": 5646,
      "siege": 5647,
      "amorous": 5648,
      "Verona": 5649,
      "Monsieur": 5650,
      "miserable": 5651,
      "determin": 5652,
      "Prospero": 5653,
      "freedom": 5654,
      "Duchess": 5655,
      "Ulysses": 5656,
      "Cloten": 5657,
      "Dor": 5658,
      "Gall": 5659,
      "Grem": 5660,
      "Nap": 5661,
      "Res": 5662,
      "Run": 5663,
      "Swear": 5664,
      "Sici": 5665,
      "Tut": 5666,
      "Ur": 5667,
      "VIC": 5668,
      "bru": 5669,
      "cise": 5670,
      "hous": 5671,
      "mned": 5672,
      "mount": 5673,
      "sli": 5674,
      "vul": 5675,
      "yard": 5676,
      "inus": 5677,
      "attain": 5678,
      "oned": 5679,
      "straw": 5680,
      "remove": 5681,
      "sey": 5682,
      "beheld": 5683,
      "roclus": 5684,
      "Thers": 5685,
      "liking": 5686,
      "tered": 5687,
      "cozen": 5688,
      "dote": 5689,
      "unworthy": 5690,
      "ordin": 5691,
      "feat": 5692,
      "shade": 5693,
      "INTER": 5694,
      "illon": 5695,
      "sions": 5696,
      "conven": 5697,
      "pot": 5698,
      "hole": 5699,
      "mul": 5700,
      "STERN": 5701,
      "venom": 5702,
      "likely": 5703,
      "provide": 5704,
      "shoulders": 5705,
      "LODO": 5706,
      "timely": 5707,
      "absent": 5708,
      "tres": 5709,
      "serpent": 5710,
      "redress": 5711,
      "courtier": 5712,
      "price": 5713,
      "QUO": 5714,
      "tram": 5715,
      "imprison": 5716,
      "caught": 5717,
      "braw": 5718,
      "whipped": 5719,
      "parley": 5720,
      "fares": 5721,
      "duked": 5722,
      "Edgar": 5723,
      "palm": 5724,
      "deserves": 5725,
      "leads": 5726,
      "Comes": 5727,
      "murderer": 5728,
      "obedient": 5729,
      "BANQUO": 5730,
      "trees": 5731,
      "elect": 5732,
      "drive": 5733,
      "resolved": 5734,
      "Tyre": 5735,
      "uries": 5736,
      "conquer": 5737,
      "passed": 5738,
      "POET": 5739,
      "advise": 5740,
      "revenged": 5741,
      "turb": 5742,
      "PUCK": 5743,
      "example": 5744,
      "condemn": 5745,
      "savage": 5746,
      "esteem": 5747,
      "Else": 5748,
      "DENSTERN": 5749,
      "nephew": 5750,
      "Patroclus": 5751,
      "ocean": 5752,
      "GUILDENSTERN": 5753,
      "Casca": 5754,
      "Gremio": 5755,
      "VICO": 5756,
      "Thersites": 5757,
      "LODOVICO": 5758,
      "Bed": 5759,
      "CY": 5760,
      "CAN": 5761,
      "CORD": 5762,
      "Down": 5763,
      "EARL": 5764,
      "FIS": 5765,
      "Field": 5766,
      "Gard": 5767,
      "Grum": 5768,
      "Grat": 5769,
      "Hy": 5770,
      "IOR": 5771,
      "Mow": 5772,
      "MOW": 5773,
      "Open": 5774,
      "Ped": 5775,
      "Sound": 5776,
      "Sic": 5777,
      "aving": 5778,
      "gid": 5779,
      "gers": 5780,
      "goose": 5781,
      "scept": 5782,
      "tut": 5783,
      "increase": 5784,
      "anie": 5785,
      "enzo": 5786,
      "stal": 5787,
      "stub": 5788,
      "recomp": 5789,
      "choler": 5790,
      "iring": 5791,
      "robe": 5792,
      "Thurio": 5793,
      "alar": 5794,
      "ently": 5795,
      "rase": 5796,
      "shadows": 5797,
      "nel": 5798,
      "suits": 5799,
      "shoot": 5800,
      "commod": 5801,
      "wore": 5802,
      "saved": 5803,
      "proved": 5804,
      "spy": 5805,
      "spurn": 5806,
      "space": 5807,
      "spread": 5808,
      "audience": 5809,
      "tooth": 5810,
      "shoulder": 5811,
      "distra": 5812,
      "distance": 5813,
      "absolute": 5814,
      "heavi": 5815,
      "graves": 5816,
      "merle": 5817,
      "rings": 5818,
      "flat": 5819,
      "feared": 5820,
      "sweetly": 5821,
      "CASTER": 5822,
      "voy": 5823,
      "prevail": 5824,
      "curst": 5825,
      "grim": 5826,
      "garland": 5827,
      "running": 5828,
      "needful": 5829,
      "brand": 5830,
      "joys": 5831,
      "thankful": 5832,
      "breaks": 5833,
      "grew": 5834,
      "PERCY": 5835,
      "sounded": 5836,
      "Poins": 5837,
      "Constable": 5838,
      "delia": 5839,
      "waters": 5840,
      "HERMAN": 5841,
      "petty": 5842,
      "gaze": 5843,
      "Cordelia": 5844,
      "actions": 5845,
      "BURGUN": 5846,
      "grievous": 5847,
      "Plain": 5848,
      "liberal": 5849,
      "SENIOR": 5850,
      "satisfaction": 5851,
      "jewels": 5852,
      "Bertram": 5853,
      "BRAY": 5854,
      "sembl": 5855,
      "_Kne": 5856,
      "fifty": 5857,
      "Return": 5858,
      "Katherine": 5859,
      "troops": 5860,
      "daily": 5861,
      "torture": 5862,
      "message": 5863,
      "inherit": 5864,
      "conference": 5865,
      "Collat": 5866,
      "LANCASTER": 5867,
      "Lorenzo": 5868,
      "THAISA": 5869,
      "Naples": 5870,
      "CORDELIA": 5871,
      "FISHERMAN": 5872,
      "Grumio": 5873,
      "Mowbray": 5874,
      "MOWBRAY": 5875,
      "BURGUNDY": 5876,
      "BL": 5877,
      "Black": 5878,
      "Cost": 5879,
      "Citizens": 5880,
      "EPER": 5881,
      "Fly": 5882,
      "FERD": 5883,
      "Gri": 5884,
      "Jess": 5885,
      "Live": 5886,
      "Making": 5887,
      "Ny": 5888,
      "Nestor": 5889,
      "Over": 5890,
      "Sleep": 5891,
      "apo": 5892,
      "bore": 5893,
      "gage": 5894,
      "mart": 5895,
      "ope": 5896,
      "swo": 5897,
      "vass": 5898,
      "çon": 5899,
      "èd": 5900,
      "theme": 5901,
      "enstern": 5902,
      "nod": 5903,
      "veins": 5904,
      "chin": 5905,
      "aspect": 5906,
      "notice": 5907,
      "liqu": 5908,
      "likes": 5909,
      "limit": 5910,
      "detest": 5911,
      "week": 5912,
      "whit": 5913,
      "coast": 5914,
      "unkind": 5915,
      "urs": 5916,
      "uring": 5917,
      "amity": 5918,
      "feign": 5919,
      "peman": 5920,
      "manly": 5921,
      "ARINO": 5922,
      "INAND": 5923,
      "shines": 5924,
      "conver": 5925,
      "compl": 5926,
      "Beau": 5927,
      "perpet": 5928,
      "perhaps": 5929,
      "exchange": 5930,
      "ornament": 5931,
      "shift": 5932,
      "imble": 5933,
      "yellow": 5934,
      "rightly": 5935,
      "keeper": 5936,
      "KEEPER": 5937,
      "curses": 5938,
      "Regan": 5939,
      "slee": 5940,
      "confusion": 5941,
      "iano": 5942,
      "praises": 5943,
      "pleasing": 5944,
      "steep": 5945,
      "joyful": 5946,
      "duff": 5947,
      "Something": 5948,
      "youthful": 5949,
      "spoil": 5950,
      "phrase": 5951,
      "forced": 5952,
      "wisely": 5953,
      "interest": 5954,
      "fields": 5955,
      "learning": 5956,
      "athed": 5957,
      "guarded": 5958,
      "princess": 5959,
      "granted": 5960,
      "easily": 5961,
      "resolution": 5962,
      "fleet": 5963,
      "Macduff": 5964,
      "Aumerle": 5965,
      "Davy": 5966,
      "drowned": 5967,
      "continue": 5968,
      "Antioch": 5969,
      "SALARINO": 5970,
      "amongst": 5971,
      "breeding": 5972,
      "Greeks": 5973,
      "usurp": 5974,
      "weapon": 5975,
      "government": 5976,
      "consul": 5977,
      "invention": 5978,
      "DOLL": 5979,
      "Rossillon": 5980,
      "merchant": 5981,
      "SURREY": 5982,
      "privilege": 5983,
      "Garter": 5984,
      "Guildenstern": 5985,
      "spleen": 5986,
      "Villain": 5987,
      "remorse": 5988,
      "Bohemia": 5989,
      "Gratiano": 5990,
      "sceptre": 5991,
      "FERDINAND": 5992,
      "Jessica": 5993,
      "pemantus": 5994,
      ":—": 5995,
      "Apemantus": 5996,
      "Bion": 5997,
      "Bassi": 5998,
      "BOTH": 5999,
      "BANTIO": 6000,
      "CUR": 6001,
      "Four": 6002,
      "Ghost": 6003,
      "Ire": 6004,
      "Lend": 6005,
      "Man": 6006,
      "New": 6007,
      "WID": 6008,
      "_T": 6009,
      "afe": 6010,
      "bud": 6011,
      "evish": 6012,
      "ghed": 6013,
      "iety": 6014,
      "lin": 6015,
      "lower": 6016,
      "mass": 6017,
      "ni": 6018,
      "sill": 6019,
      "tar": 6020,
      "ylock": 6021,
      "eril": 6022,
      "ouched": 6023,
      "invisible": 6024,
      "ator": 6025,
      "stit": 6026,
      "removed": 6027,
      "rebels": 6028,
      "hallow": 6029,
      "seize": 6030,
      "seldom": 6031,
      "forms": 6032,
      "dea": 6033,
      "dello": 6034,
      "decei": 6035,
      "Andrew": 6036,
      "solic": 6037,
      "rack": 6038,
      "dove": 6039,
      "tie": 6040,
      "fever": 6041,
      "peevish": 6042,
      "manhood": 6043,
      "Tom": 6044,
      "share": 6045,
      "sies": 6046,
      "poly": 6047,
      "moving": 6048,
      "tem": 6049,
      "ctors": 6050,
      "ORLE": 6051,
      "theirs": 6052,
      "seemed": 6053,
      "foreign": 6054,
      "THAS": 6055,
      "CHIR": 6056,
      "ache": 6057,
      "angers": 6058,
      "Answer": 6059,
      "parting": 6060,
      "serious": 6061,
      "scru": 6062,
      "PHIN": 6063,
      "fires": 6064,
      "travell": 6065,
      "lights": 6066,
      "lightning": 6067,
      "couldst": 6068,
      "begun": 6069,
      "MARIANA": 6070,
      "whip": 6071,
      "whiles": 6072,
      "Robin": 6073,
      "Reign": 6074,
      "draws": 6075,
      "Lead": 6076,
      "strongly": 6077,
      "commands": 6078,
      "Shylock": 6079,
      "lately": 6080,
      "crying": 6081,
      "corse": 6082,
      "celle": 6083,
      "cription": 6084,
      "value": 6085,
      "Mean": 6086,
      "surfeit": 6087,
      "aboard": 6088,
      "pitiful": 6089,
      "towns": 6090,
      "burst": 6091,
      "instruments": 6092,
      "PAINTER": 6093,
      "Worthy": 6094,
      "DAUPHIN": 6095,
      "BRABANTIO": 6096,
      "injury": 6097,
      "Steph": 6098,
      "Florence": 6099,
      "saucy": 6100,
      "BALTHAS": 6101,
      "disguised": 6102,
      "imagination": 6103,
      "preserve": 6104,
      "Goneril": 6105,
      "current": 6106,
      "OUTLAW": 6107,
      "Pucelle": 6108,
      "suspicion": 6109,
      "stubborn": 6110,
      "Biondello": 6111,
      "Bassianus": 6112,
      "Ireland": 6113,
      "WIDOW": 6114,
      "afeard": 6115,
      "ORLEANS": 6116,
      "CHIRON": 6117,
      "BALTHASAR": 6118,
      "BAR": 6119,
      "Camp": 6120,
      "Fer": 6121,
      "Gower": 6122,
      "Hip": 6123,
      "Imp": 6124,
      "NARD": 6125,
      "OBER": 6126,
      "Ophe": 6127,
      "PPA": 6128,
      "Patience": 6129,
      "Rat": 6130,
      "Right": 6131,
      "Thi": 6132,
      "Twere": 6133,
      "UIS": 6134,
      "VAR": 6135,
      "bere": 6136,
      "cull": 6137,
      "date": 6138,
      "flame": 6139,
      "hue": 6140,
      "hated": 6141,
      "nought": 6142,
      "olles": 6143,
      "rhe": 6144,
      "yes": 6145,
      "erous": 6146,
      "error": 6147,
      "ino": 6148,
      "ençon": 6149,
      "vels": 6150,
      "beds": 6151,
      "chor": 6152,
      "cel": 6153,
      "hire": 6154,
      "forty": 6155,
      "roll": 6156,
      "lican": 6157,
      "term": 6158,
      "alms": 6159,
      "cox": 6160,
      "peep": 6161,
      "moves": 6162,
      "compe": 6163,
      "blue": 6164,
      "tax": 6165,
      "Bel": 6166,
      "discharge": 6167,
      "dim": 6168,
      "LOV": 6169,
      "LOUIS": 6170,
      "except": 6171,
      "experi": 6172,
      "swears": 6173,
      "ably": 6174,
      "lting": 6175,
      "RIPPA": 6176,
      "fearing": 6177,
      "warri": 6178,
      "tribunes": 6179,
      "oppress": 6180,
      "pursue": 6181,
      "grass": 6182,
      "compound": 6183,
      "keeping": 6184,
      "Alençon": 6185,
      "Herald": 6186,
      "irect": 6187,
      "mothers": 6188,
      "Proceed": 6189,
      "AGRIPPA": 6190,
      "clean": 6191,
      "OTHSA": 6192,
      "ville": 6193,
      "kna": 6194,
      "happily": 6195,
      "breaking": 6196,
      "obtain": 6197,
      "strump": 6198,
      "wail": 6199,
      "returned": 6200,
      "Parolles": 6201,
      "beholding": 6202,
      "Athenian": 6203,
      "hostess": 6204,
      "divor": 6205,
      "instruct": 6206,
      "famous": 6207,
      "supply": 6208,
      "FRAN": 6209,
      "officers": 6210,
      "Corioles": 6211,
      "conclusion": 6212,
      "persuade": 6213,
      "points": 6214,
      "SOOTHSA": 6215,
      "steps": 6216,
      "corrupt": 6217,
      "eagle": 6218,
      "accident": 6219,
      "chastity": 6220,
      "assurance": 6221,
      "rhyme": 6222,
      "stretch": 6223,
      "Trumpets": 6224,
      "behaviour": 6225,
      "Apollo": 6226,
      "Garden": 6227,
      "giddy": 6228,
      "aniel": 6229,
      "polyta": 6230,
      "BARNARD": 6231,
      "Hippolyta": 6232,
      "OBERON": 6233,
      "Ophelia": 6234,
      "SOOTHSAYER": 6235,
      "AUS": 6236,
      "Adam": 6237,
      "Bor": 6238,
      "CER": 6239,
      "CATES": 6240,
      "Der": 6241,
      "Ever": 6242,
      "ILO": 6243,
      "Kill": 6244,
      "LANT": 6245,
      "Mant": 6246,
      "Other": 6247,
      "PLANT": 6248,
      "VERS": 6249,
      "bul": 6250,
      "clif": 6251,
      "climb": 6252,
      "ec": 6253,
      "rouse": 6254,
      "ratch": 6255,
      "saint": 6256,
      "sbury": 6257,
      "scope": 6258,
      "wished": 6259,
      "issa": 6260,
      "ative": 6261,
      "andal": 6262,
      "heap": 6263,
      "stale": 6264,
      "metal": 6265,
      "reli": 6266,
      "hap": 6267,
      "haply": 6268,
      "cet": 6269,
      "uts": 6270,
      "Things": 6271,
      "noted": 6272,
      "livery": 6273,
      "deput": 6274,
      "adle": 6275,
      "advers": 6276,
      "urge": 6277,
      "shapes": 6278,
      "suf": 6279,
      "ruction": 6280,
      "shook": 6281,
      "bosoms": 6282,
      "seeks": 6283,
      "ELBO": 6284,
      "CHANT": 6285,
      "ples": 6286,
      "telling": 6287,
      "scour": 6288,
      "lesser": 6289,
      "flout": 6290,
      "ppa": 6291,
      "pport": 6292,
      "newly": 6293,
      "mightst": 6294,
      "compar": 6295,
      "fallen": 6296,
      "Read": 6297,
      "kills": 6298,
      "AGENET": 6299,
      "throng": 6300,
      "busy": 6301,
      "carri": 6302,
      "praised": 6303,
      "henceforth": 6304,
      "strikes": 6305,
      "observe": 6306,
      "kissing": 6307,
      "delicate": 6308,
      "promis": 6309,
      "burns": 6310,
      "suffici": 6311,
      "drinking": 6312,
      "MERCHANT": 6313,
      "Jailer": 6314,
      "qualities": 6315,
      "cowards": 6316,
      "ambassad": 6317,
      "succeed": 6318,
      "infant": 6319,
      "eldest": 6320,
      "effects": 6321,
      "ctive": 6322,
      "censure": 6323,
      "ugly": 6324,
      "throats": 6325,
      "GAUNT": 6326,
      "_Dies": 6327,
      "conditions": 6328,
      "physician": 6329,
      "Blunt": 6330,
      "refuse": 6331,
      "WILLIAMS": 6332,
      "directly": 6333,
      "Tribunes": 6334,
      "Octavia": 6335,
      "claims": 6336,
      "hungry": 6337,
      "redeem": 6338,
      "Phoebe": 6339,
      "beams": 6340,
      "deceit": 6341,
      "Nerissa": 6342,
      "houses": 6343,
      "trespass": 6344,
      "electronic": 6345,
      "recompense": 6346,
      "Costard": 6347,
      "Ratclif": 6348,
      "strumpet": 6349,
      "CATESBY": 6350,
      "PLANTAGENET": 6351,
      "ELBOW": 6352,
      "Ratcliffe": 6353,
      "Daughter": 6354,
      "GILIA": 6355,
      "GHOST": 6356,
      "Grey": 6357,
      "PR": 6358,
      "RIC": 6359,
      "Simp": 6360,
      "Ten": 6361,
      "Tars": 6362,
      "Vin": 6363,
      "VERN": 6364,
      "WINCH": 6365,
      "_She": 6366,
      "cation": 6367,
      "couch": 6368,
      "crant": 6369,
      "dst": 6370,
      "i_": 6371,
      "ix": 6372,
      "iance": 6373,
      "ized": 6374,
      "nap": 6375,
      "nimble": 6376,
      "zy": 6377,
      "thread": 6378,
      "ero": 6379,
      "incu": 6380,
      "arise": 6381,
      "stout": 6382,
      "meth": 6383,
      "rear": 6384,
      "haw": 6385,
      "cep": 6386,
      "forswear": 6387,
      "rope": 6388,
      "wet": 6389,
      "withdraw": 6390,
      "alack": 6391,
      "soil": 6392,
      "enton": 6393,
      "rapier": 6394,
      "loso": 6395,
      "amen": 6396,
      "fac": 6397,
      "ending": 6398,
      "EROS": 6399,
      "butcher": 6400,
      "contri": 6401,
      "moan": 6402,
      "box": 6403,
      "worms": 6404,
      "wot": 6405,
      "mph": 6406,
      "process": 6407,
      "prodig": 6408,
      "tood": 6409,
      "offences": 6410,
      "breeds": 6411,
      "kingly": 6412,
      "gnant": 6413,
      "scal": 6414,
      "scatter": 6415,
      "deaths": 6416,
      "guide": 6417,
      "headed": 6418,
      "immortal": 6419,
      "immediate": 6420,
      "placed": 6421,
      "Rosen": 6422,
      "afternoon": 6423,
      "medit": 6424,
      "Stre": 6425,
      "Dead": 6426,
      "asked": 6427,
      "barbar": 6428,
      "strangely": 6429,
      "murd": 6430,
      "cape": 6431,
      "acts": 6432,
      "commonwealth": 6433,
      "ancing": 6434,
      "burnt": 6435,
      "MASTER": 6436,
      "igence": 6437,
      "mettle": 6438,
      "defy": 6439,
      "supposed": 6440,
      "Lovell": 6441,
      "possessed": 6442,
      "thirty": 6443,
      "churl": 6444,
      "secrets": 6445,
      "GHT": 6446,
      "drunken": 6447,
      "proceeding": 6448,
      "swain": 6449,
      "Worcester": 6450,
      "Rosaline": 6451,
      "Senate": 6452,
      "conclude": 6453,
      "mutiny": 6454,
      "pinch": 6455,
      "preparation": 6456,
      "VIRGILIA": 6457,
      "conjure": 6458,
      "condemned": 6459,
      "Katherina": 6460,
      "clamation": 6461,
      "funeral": 6462,
      "Break": 6463,
      "ragged": 6464,
      "philoso": 6465,
      "Chamberlain": 6466,
      "General": 6467,
      "blos": 6468,
      "Hotspur": 6469,
      "rebellion": 6470,
      "Tarsus": 6471,
      "Vincentio": 6472,
      "VERNON": 6473,
      "WINCHESTER": 6474,
      "crantz": 6475,
      "Rosencrantz": 6476,
      "Agri": 6477,
      "Bri": 6478,
      "Ear": 6479,
      "Jes": 6480,
      "JESS": 6481,
      "Pir": 6482,
      "Pub": 6483,
      "RAT": 6484,
      "Sm": 6485,
      "Son": 6486,
      "Sur": 6487,
      "Tra": 6488,
      "Turk": 6489,
      "UE": 6490,
      "Wid": 6491,
      "brown": 6492,
      "boots": 6493,
      "dine": 6494,
      "hatch": 6495,
      "kno": 6496,
      "liness": 6497,
      "mation": 6498,
      "pper": 6499,
      "push": 6500,
      "san": 6501,
      "south": 6502,
      "vive": 6503,
      "wart": 6504,
      "thin": 6505,
      "threw": 6506,
      "ination": 6507,
      "oracle": 6508,
      "ency": 6509,
      "recon": 6510,
      "repose": 6511,
      "reproach": 6512,
      "ital": 6513,
      "itable": 6514,
      "level": 6515,
      "liken": 6516,
      "lixen": 6517,
      "deck": 6518,
      "devo": 6519,
      "keen": 6520,
      "terrible": 6521,
      "altogether": 6522,
      "rious": 6523,
      "peer": 6524,
      "pearl": 6525,
      "suitor": 6526,
      "rupt": 6527,
      "const": 6528,
      "contract": 6529,
      "poster": 6530,
      "working": 6531,
      "apes": 6532,
      "apace": 6533,
      "appla": 6534,
      "approve": 6535,
      "apparent": 6536,
      "likewise": 6537,
      "Belar": 6538,
      "distress": 6539,
      "perchance": 6540,
      "exile": 6541,
      "handsome": 6542,
      "honoured": 6543,
      "trench": 6544,
      "ICA": 6545,
      "ILOR": 6546,
      "strate": 6547,
      "RIVERS": 6548,
      "wrence": 6549,
      "reser": 6550,
      "trifle": 6551,
      "settled": 6552,
      "rights": 6553,
      "curs": 6554,
      "curtain": 6555,
      "brag": 6556,
      "beget": 6557,
      "falling": 6558,
      "parag": 6559,
      "Hermi": 6560,
      "engthen": 6561,
      "Joan": 6562,
      "closet": 6563,
      "AGUE": 6564,
      "husbands": 6565,
      "doub": 6566,
      "sung": 6567,
      "Polixen": 6568,
      "bargain": 6569,
      "Canst": 6570,
      "Lawrence": 6571,
      "survey": 6572,
      "require": 6573,
      "weakness": 6574,
      "quarter": 6575,
      "miracle": 6576,
      "Titinius": 6577,
      "stoop": 6578,
      "titles": 6579,
      "Pluck": 6580,
      "Comp": 6581,
      "conceal": 6582,
      "Silence": 6583,
      "axe": 6584,
      "satisfy": 6585,
      "schol": 6586,
      "blushing": 6587,
      "Adon": 6588,
      "OSRIC": 6589,
      "grandsire": 6590,
      "loyalty": 6591,
      "neglect": 6592,
      "enforced": 6593,
      "Lieutenant": 6594,
      "Denmark": 6595,
      "ceremony": 6596,
      "Octavius": 6597,
      "comforts": 6598,
      "treacherous": 6599,
      "Isabel": 6600,
      "beguile": 6601,
      "society": 6602,
      "fantast": 6603,
      "intelligence": 6604,
      "opposite": 6605,
      "Messala": 6606,
      "extremity": 6607,
      "sinews": 6608,
      "Paulina": 6609,
      "semblance": 6610,
      "silly": 6611,
      "VARRO": 6612,
      "Street": 6613,
      "Agrippa": 6614,
      "JESSICA": 6615,
      "Belarius": 6616,
      "Hermione": 6617,
      "Polixenes": 6618,
      "BED": 6619,
      "Cur": 6620,
      "Chor": 6621,
      "Cons": 6622,
      "EC": 6623,
      "Fenton": 6624,
      "IG": 6625,
      "Jud": 6626,
      "Pur": 6627,
      "Sn": 6628,
      "Sup": 6629,
      "_Th": 6630,
      "avar": 6631,
      "bal": 6632,
      "batter": 6633,
      "cardinal": 6634,
      "hare": 6635,
      "lter": 6636,
      "lorn": 6637,
      "lark": 6638,
      "miles": 6639,
      "pence": 6640,
      "path": 6641,
      "pull": 6642,
      "rend": 6643,
      "wak": 6644,
      "waking": 6645,
      "zes": 6646,
      "inted": 6647,
      "arti": 6648,
      "hey": 6649,
      "wil": 6650,
      "beats": 6651,
      "asion": 6652,
      "lily": 6653,
      "lift": 6654,
      "liament": 6655,
      "weed": 6656,
      "aloud": 6657,
      "rial": 6658,
      "etch": 6659,
      "coin": 6660,
      "willow": 6661,
      "manif": 6662,
      "manage": 6663,
      "endower": 6664,
      "rub": 6665,
      "moral": 6666,
      "contend": 6667,
      "conspir": 6668,
      "mud": 6669,
      "Helican": 6670,
      "tage": 6671,
      "sirs": 6672,
      "split": 6673,
      "disci": 6674,
      "discord": 6675,
      "dissem": 6676,
      "angle": 6677,
      "abused": 6678,
      "flu": 6679,
      "counsell": 6680,
      "sweetest": 6681,
      "PHO": 6682,
      "rescue": 6683,
      "TIMER": 6684,
      "preced": 6685,
      "tenor": 6686,
      "giance": 6687,
      "compli": 6688,
      "tales": 6689,
      "Almost": 6690,
      "youngest": 6691,
      "Revenge": 6692,
      "medic": 6693,
      "cloth": 6694,
      "stocks": 6695,
      "senseless": 6696,
      "vaunt": 6697,
      "pawn": 6698,
      "Deliver": 6699,
      "PERDI": 6700,
      "Glendower": 6701,
      "breathing": 6702,
      "careful": 6703,
      "careless": 6704,
      "beside": 6705,
      "Shrew": 6706,
      "sights": 6707,
      "corpor": 6708,
      "deserving": 6709,
      "royalty": 6710,
      "sadness": 6711,
      "commons": 6712,
      "yielded": 6713,
      "dowry": 6714,
      "bottle": 6715,
      "sovereignty": 6716,
      "Juno": 6717,
      "wooing": 6718,
      "DION": 6719,
      "dinand": 6720,
      "resolve": 6721,
      "wenches": 6722,
      "evils": 6723,
      "MORTIMER": 6724,
      "expectation": 6725,
      "amazed": 6726,
      "Six": 6727,
      "receiv": 6728,
      "Cressida": 6729,
      "lodging": 6730,
      "renowned": 6731,
      "Isabella": 6732,
      "ligence": 6733,
      "smoke": 6734,
      "couple": 6735,
      "SIMPLE": 6736,
      "piteous": 6737,
      "rejoice": 6738,
      "orchard": 6739,
      "trunk": 6740,
      "dukedom": 6741,
      "alarum": 6742,
      "Nym": 6743,
      "Ferdinand": 6744,
      "LOVELL": 6745,
      "Mantua": 6746,
      "Widow": 6747,
      "BEDFORD": 6748,
      "PERDITA": 6749,
      "Amb": 6750,
      "Beseech": 6751,
      "Cal": 6752,
      "Im": 6753,
      "Nep": 6754,
      "Rug": 6755,
      "Saw": 6756,
      "SLY": 6757,
      "Twill": 6758,
      "ah": 6759,
      "cence": 6760,
      "fan": 6761,
      "foun": 6762,
      "mish": 6763,
      "oms": 6764,
      "pine": 6765,
      "rar": 6766,
      "ssed": 6767,
      "tu": 6768,
      "touched": 6769,
      "uff": 6770,
      "vap": 6771,
      "wand": 6772,
      "wre": 6773,
      "wers": 6774,
      "yr": 6775,
      "yon": 6776,
      "endea": 6777,
      "ony": 6778,
      "rebel": 6779,
      "owes": 6780,
      "forsake": 6781,
      "forlorn": 6782,
      "utch": 6783,
      "roof": 6784,
      "Thine": 6785,
      "lier": 6786,
      "lions": 6787,
      "river": 6788,
      "covery": 6789,
      "coats": 6790,
      "vern": 6791,
      "amour": 6792,
      "amond": 6793,
      "amends": 6794,
      "ests": 6795,
      "ckle": 6796,
      "cont": 6797,
      "quity": 6798,
      "bove": 6799,
      "sheet": 6800,
      "asted": 6801,
      "ALEX": 6802,
      "canker": 6803,
      "appoint": 6804,
      "thereby": 6805,
      "spark": 6806,
      "mbers": 6807,
      "exer": 6808,
      "afoot": 6809,
      "acles": 6810,
      "accent": 6811,
      "Off": 6812,
      "mont": 6813,
      "kingdoms": 6814,
      "fairies": 6815,
      "sces": 6816,
      "unders": 6817,
      "flint": 6818,
      "file": 6819,
      "Marian": 6820,
      "baw": 6821,
      "ressed": 6822,
      "tried": 6823,
      "longing": 6824,
      "jot": 6825,
      "impress": 6826,
      "compare": 6827,
      "dearer": 6828,
      "natures": 6829,
      "derive": 6830,
      "bidding": 6831,
      "carries": 6832,
      "minster": 6833,
      "matters": 6834,
      "senators": 6835,
      "cutio": 6836,
      "strict": 6837,
      "REIG": 6838,
      "Lewis": 6839,
      "craves": 6840,
      "riches": 6841,
      "CORIN": 6842,
      "ancest": 6843,
      "doubtful": 6844,
      "Methought": 6845,
      "suffered": 6846,
      "Seek": 6847,
      "pays": 6848,
      "lads": 6849,
      "writing": 6850,
      "walks": 6851,
      "signior": 6852,
      "signify": 6853,
      "fourteen": 6854,
      "destruction": 6855,
      "quarre": 6856,
      "Jaques": 6857,
      "Titan": 6858,
      "flattery": 6859,
      "GUE": 6860,
      "oked": 6861,
      "filled": 6862,
      "elements": 6863,
      "doublet": 6864,
      "SILVIUS": 6865,
      "cherish": 6866,
      "marching": 6867,
      "grandam": 6868,
      "innocence": 6869,
      "instantly": 6870,
      "changed": 6871,
      "Alarums": 6872,
      "feeble": 6873,
      "keys": 6874,
      "Westminster": 6875,
      "Mercutio": 6876,
      "Volsces": 6877,
      "WOMAN": 6878,
      "roaring": 6879,
      "MONTANO": 6880,
      "MONTAGUE": 6881,
      "guiltless": 6882,
      "swelling": 6883,
      "prosperous": 6884,
      "imperial": 6885,
      "treachery": 6886,
      "NIER": 6887,
      "NIGHT": 6888,
      "according": 6889,
      "beggars": 6890,
      "babes": 6891,
      "scurvy": 6892,
      "colle": 6893,
      "allegiance": 6894,
      "vulgar": 6895,
      "Collatine": 6896,
      "perpetual": 6897,
      "Reignier": 6898,
      "Stephano": 6899,
      "Publius": 6900,
      "likeness": 6901,
      "Chorus": 6902,
      "discipl": 6903,
      "Shrewsbury": 6904,
      "Rugby": 6905,
      "REIGNIER": 6906,
      "ABELLA": 6907,
      "Bless": 6908,
      "CENTIO": 6909,
      "Ev": 6910,
      "East": 6911,
      "EBE": 6912,
      "Five": 6913,
      "GLEN": 6914,
      "IMON": 6915,
      "Iras": 6916,
      "LAR": 6917,
      "Lies": 6918,
      "Os": 6919,
      "OUN": 6920,
      "POR": 6921,
      "Sta": 6922,
      "Ta": 6923,
      "YOUN": 6924,
      "_O": 6925,
      "_P": 6926,
      "ali": 6927,
      "bone": 6928,
      "bac": 6929,
      "cook": 6930,
      "cab": 6931,
      "cudge": 6932,
      "dower": 6933,
      "fla": 6934,
      "gap": 6935,
      "hound": 6936,
      "ju": 6937,
      "lu": 6938,
      "os": 6939,
      "pow": 6940,
      "pac": 6941,
      "plight": 6942,
      "smother": 6943,
      "instance": 6944,
      "isa": 6945,
      "atic": 6946,
      "lla": 6947,
      "seed": 6948,
      "wipe": 6949,
      "chan": 6950,
      "riot": 6951,
      "rages": 6952,
      "alliance": 6953,
      "dole": 6954,
      "unjust": 6955,
      "verty": 6956,
      "lodge": 6957,
      "herd": 6958,
      "shal": 6959,
      "ANIA": 6960,
      "ANIEL": 6961,
      "ARTHUR": 6962,
      "upright": 6963,
      "poverty": 6964,
      "Enough": 6965,
      "teth": 6966,
      "goods": 6967,
      "outs": 6968,
      "aph": 6969,
      "app": 6970,
      "inks": 6971,
      "forehead": 6972,
      "THANIEL": 6973,
      "dious": 6974,
      "explo": 6975,
      "plan": 6976,
      "pless": 6977,
      "answers": 6978,
      "broad": 6979,
      "scratch": 6980,
      "scandal": 6981,
      "omit": 6982,
      "umes": 6983,
      "talking": 6984,
      "reasonable": 6985,
      "harbour": 6986,
      "eming": 6987,
      "ULPH": 6988,
      "ranks": 6989,
      "subdu": 6990,
      "stole": 6991,
      "sensible": 6992,
      "capable": 6993,
      "pipe": 6994,
      "create": 6995,
      "DOWER": 6996,
      "Perchance": 6997,
      "sadly": 6998,
      "awn": 6999,
      "sitting": 7000,
      "Command": 7001,
      "eaten": 7002,
      "touches": 7003,
      "requite": 7004,
      "Trust": 7005,
      "Lucio": 7006,
      "PANDULPH": 7007,
      "suppose": 7008,
      "wonderful": 7009,
      "wheel": 7010,
      "pitied": 7011,
      "cused": 7012,
      "frail": 7013,
      "stirring": 7014,
      "hideous": 7015,
      "heirs": 7016,
      "bonds": 7017,
      "direction": 7018,
      "grieves": 7019,
      "eleven": 7020,
      "trembling": 7021,
      "dainty": 7022,
      "Cleon": 7023,
      "altar": 7024,
      "vanqu": 7025,
      "Alexander": 7026,
      "Philip": 7027,
      "robb": 7028,
      "varlet": 7029,
      "threaten": 7030,
      "pierce": 7031,
      "virginity": 7032,
      "injuries": 7033,
      "ministers": 7034,
      "miseries": 7035,
      "Diomedes": 7036,
      "balls": 7037,
      "punishment": 7038,
      "DOLABELLA": 7039,
      "Trincu": 7040,
      "NATHANIEL": 7041,
      "Thaisa": 7042,
      "VINCENTIO": 7043,
      "Cornwall": 7044,
      "clerk": 7045,
      "front": 7046,
      "yesterday": 7047,
      "expedition": 7048,
      "Foundation": 7049,
      "TITANIA": 7050,
      "Sicilia": 7051,
      "CERIMON": 7052,
      "sanct": 7053,
      "constancy": 7054,
      "Adonis": 7055,
      "PHOEBE": 7056,
      "Neptune": 7057,
      "GLENDOWER": 7058,
      "LARTIUS": 7059,
      "PORTER": 7060,
      "YOUNG": 7061,
      "bachel": 7062,
      "Trinculo": 7063,
      "12": 7064,
      ";—": 7065,
      "Ba": 7066,
      "Bull": 7067,
      "Crom": 7068,
      "Die": 7069,
      "Fit": 7070,
      "Fetch": 7071,
      "GARDIN": 7072,
      "Mic": 7073,
      "Mene": 7074,
      "NOX": 7075,
      "Navar": 7076,
      "PLA": 7077,
      "Sister": 7078,
      "TY": 7079,
      "Twixt": 7080,
      "UG": 7081,
      "Use": 7082,
      "VER": 7083,
      "WIS": 7084,
      "_Music": 7085,
      "awe": 7086,
      "bate": 7087,
      "bese": 7088,
      "bounds": 7089,
      "dut": 7090,
      "fts": 7091,
      "frank": 7092,
      "gust": 7093,
      "gins": 7094,
      "lves": 7095,
      "mould": 7096,
      "mity": 7097,
      "nigh": 7098,
      "opport": 7099,
      "vation": 7100,
      "inct": 7101,
      "infection": 7102,
      "methought": 7103,
      "hael": 7104,
      "itch": 7105,
      "ing_": 7106,
      "betimes": 7107,
      "myster": 7108,
      "rocks": 7109,
      "lian": 7110,
      "withstanding": 7111,
      "aloft": 7112,
      "sober": 7113,
      "adul": 7114,
      "coal": 7115,
      "Thebes": 7116,
      "tified": 7117,
      "mast": 7118,
      "mantle": 7119,
      "ruled": 7120,
      "shores": 7121,
      "converse": 7122,
      "consequ": 7123,
      "polit": 7124,
      "anting": 7125,
      "hose": 7126,
      "quaint": 7127,
      "indign": 7128,
      "cts": 7129,
      "asters": 7130,
      "blish": 7131,
      "ALICE": 7132,
      "Exit": 7133,
      "LEWIS": 7134,
      "proph": 7135,
      "disper": 7136,
      "disturb": 7137,
      "Inn": 7138,
      "diet": 7139,
      "diest": 7140,
      "divide": 7141,
      "division": 7142,
      "offered": 7143,
      "amed": 7144,
      "cibi": 7145,
      "Any": 7146,
      "abus": 7147,
      "desired": 7148,
      "tran": 7149,
      "AMP": 7150,
      "marvell": 7151,
      "ICIAN": 7152,
      "Whereof": 7153,
      "hasty": 7154,
      "courses": 7155,
      "mado": 7156,
      "umaine": 7157,
      "prime": 7158,
      "bait": 7159,
      "bald": 7160,
      "URSU": 7161,
      "preva": 7162,
      "household": 7163,
      "CONRA": 7164,
      "cursions": 7165,
      "Alcibi": 7166,
      "uded": 7167,
      "Receive": 7168,
      "ULL": 7169,
      "horrible": 7170,
      "Arm": 7171,
      "hedge": 7172,
      "steward": 7173,
      "burial": 7174,
      "hourly": 7175,
      "impedi": 7176,
      "singing": 7177,
      "Sub": 7178,
      "capti": 7179,
      "wanting": 7180,
      "penit": 7181,
      "slumber": 7182,
      "passes": 7183,
      "silk": 7184,
      "Serving": 7185,
      "summon": 7186,
      "murdered": 7187,
      "writes": 7188,
      "Attendant": 7189,
      "safely": 7190,
      "bowels": 7191,
      "troubles": 7192,
      "sufferance": 7193,
      "nail": 7194,
      "middle": 7195,
      "SILENCE": 7196,
      "Worth": 7197,
      "LENNOX": 7198,
      "vanish": 7199,
      "cruelty": 7200,
      "testi": 7201,
      "Walter": 7202,
      "breathed": 7203,
      "frowns": 7204,
      "_Draw": 7205,
      "mourning": 7206,
      "necessary": 7207,
      "greeting": 7208,
      "amaz": 7209,
      "amaze": 7210,
      "strokes": 7211,
      "wager": 7212,
      "extreme": 7213,
      "determine": 7214,
      "claimed": 7215,
      "pronounce": 7216,
      "Albany": 7217,
      "concerns": 7218,
      "Honour": 7219,
      "merrily": 7220,
      "Witness": 7221,
      "hunger": 7222,
      "character": 7223,
      "sacrifice": 7224,
      "Syracuse": 7225,
      "Dorset": 7226,
      "convenient": 7227,
      "Bedford": 7228,
      "voyage": 7229,
      "vassal": 7230,
      "divorce": 7231,
      "fountain": 7232,
      "GARDINER": 7233,
      "Michael": 7234,
      "Navarre": 7235,
      "prophesy": 7236,
      "CONRADE": 7237,
      "Alcibiades": 7238,
      "Aud": 7239,
      "Besh": 7240,
      "Cin": 7241,
      "CROM": 7242,
      "DOR": 7243,
      "Dumaine": 7244,
      "Fro": 7245,
      "Fab": 7246,
      "Har": 7247,
      "Hie": 7248,
      "Ned": 7249,
      "Near": 7250,
      "Oliver": 7251,
      "South": 7252,
      "TON": 7253,
      "Toward": 7254,
      "VIII": 7255,
      "Yield": 7256,
      "_Here": 7257,
      "bits": 7258,
      "dat": 7259,
      "dancing": 7260,
      "fty": 7261,
      "gli": 7262,
      "gorge": 7263,
      "hates": 7264,
      "jou": 7265,
      "mits": 7266,
      "nard": 7267,
      "nup": 7268,
      "nicious": 7269,
      "pang": 7270,
      "rites": 7271,
      "ssi": 7272,
      "tum": 7273,
      "vast": 7274,
      "wakes": 7275,
      "insol": 7276,
      "ision": 7277,
      "enmity": 7278,
      "escape": 7279,
      "stuck": 7280,
      "hamed": 7281,
      "ashamed": 7282,
      "notes": 7283,
      "notwithstanding": 7284,
      "defect": 7285,
      "devour": 7286,
      "terr": 7287,
      "alty": 7288,
      "entrance": 7289,
      "etell": 7290,
      "history": 7291,
      "raging": 7292,
      "unseen": 7293,
      "unkindness": 7294,
      "untimely": 7295,
      "amend": 7296,
      "ANMER": 7297,
      "sues": 7298,
      "sustain": 7299,
      "laus": 7300,
      "shining": 7301,
      "contemp": 7302,
      "conbridge": 7303,
      "moder": 7304,
      "quake": 7305,
      "indiffer": 7306,
      "sails": 7307,
      "ALA": 7308,
      "Excell": 7309,
      "cannon": 7310,
      "agues": 7311,
      "proclamation": 7312,
      "Belike": 7313,
      "diseas": 7314,
      "distemper": 7315,
      "distribut": 7316,
      "dismal": 7317,
      "Ask": 7318,
      "pledge": 7319,
      "vio": 7320,
      "diamond": 7321,
      "exce": 7322,
      "extend": 7323,
      "cies": 7324,
      "affright": 7325,
      "desir": 7326,
      "nightly": 7327,
      "heav": 7328,
      "mistrust": 7329,
      "mistook": 7330,
      "retreat": 7331,
      "evermore": 7332,
      "tsy": 7333,
      "madman": 7334,
      "prays": 7335,
      "resign": 7336,
      "resem": 7337,
      "Shepherd": 7338,
      "imit": 7339,
      "purge": 7340,
      "purple": 7341,
      "grat": 7342,
      "grate": 7343,
      "Cali": 7344,
      "champ": 7345,
      "brace": 7346,
      "charms": 7347,
      "harvest": 7348,
      "garment": 7349,
      "players": 7350,
      "thren": 7351,
      "lays": 7352,
      "backward": 7353,
      "queath": 7354,
      "subscri": 7355,
      "stolen": 7356,
      "atient": 7357,
      "steed": 7358,
      "banks": 7359,
      "windows": 7360,
      "evening": 7361,
      "soundly": 7362,
      "Leont": 7363,
      "swearing": 7364,
      "Content": 7365,
      "verses": 7366,
      "waves": 7367,
      "promises": 7368,
      "certainly": 7369,
      "MESSALA": 7370,
      "Hadst": 7371,
      "gallows": 7372,
      "Lucilius": 7373,
      "gestion": 7374,
      "speeches": 7375,
      "creation": 7376,
      "despise": 7377,
      "nymph": 7378,
      "mocked": 7379,
      "scorns": 7380,
      "plucked": 7381,
      "severally": 7382,
      "bondage": 7383,
      "beastly": 7384,
      "election": 7385,
      "driven": 7386,
      "PEMBROKE": 7387,
      "execute": 7388,
      "governor": 7389,
      "swagger": 7390,
      "vanity": 7391,
      "Greece": 7392,
      "Philo": 7393,
      "acknow": 7394,
      "Green": 7395,
      "_Knock": 7396,
      "CRANMER": 7397,
      "Vols": 7398,
      "mountains": 7399,
      "Princes": 7400,
      "loathsome": 7401,
      "favoured": 7402,
      "guests": 7403,
      "profession": 7404,
      "Accord": 7405,
      "Albans": 7406,
      "reckoning": 7407,
      "peasant": 7408,
      "narrow": 7409,
      "Beaufort": 7410,
      "sleeve": 7411,
      "scruple": 7412,
      "Belmont": 7413,
      "BARNARDO": 7414,
      "prodigal": 7415,
      "Jesu": 7416,
      "scholar": 7417,
      "Evans": 7418,
      "Cromwell": 7419,
      "politic": 7420,
      "Beshrew": 7421,
      "CROMWELL": 7422,
      "Fabian": 7423,
      "Leontes": 7424,
      "BBO": 7425,
      "Cæ": 7426,
      "CIN": 7427,
      "Eli": 7428,
      "Fif": 7429,
      "FENT": 7430,
      "Hall": 7431,
      "KNIGHT": 7432,
      "Lar": 7433,
      "Ph": 7434,
      "SAMP": 7435,
      "Virt": 7436,
      "aville": 7437,
      "bation": 7438,
      "buke": 7439,
      "ciful": 7440,
      "dangers": 7441,
      "ffi": 7442,
      "gour": 7443,
      "gru": 7444,
      "ime": 7445,
      "jump": 7446,
      "ky": 7447,
      "mire": 7448,
      "nam": 7449,
      "passi": 7450,
      "rated": 7451,
      "sar": 7452,
      "sanc": 7453,
      "tun": 7454,
      "treat": 7455,
      "udes": 7456,
      "vine": 7457,
      "wreck": 7458,
      "’,": 7459,
      "infa": 7460,
      "inte": 7461,
      "infer": 7462,
      "intents": 7463,
      "arro": 7464,
      "tock": 7465,
      "heath": 7466,
      "heave": 7467,
      "lewd": 7468,
      "belike": 7469,
      "beware": 7470,
      "forman": 7471,
      "fords": 7472,
      "ays": 7473,
      "ross": 7474,
      "Thri": 7475,
      "Throw": 7476,
      "lids": 7477,
      "lihood": 7478,
      "dep": 7479,
      "decre": 7480,
      "terbury": 7481,
      "dol": 7482,
      "domin": 7483,
      "loqu": 7484,
      "heriff": 7485,
      "sugar": 7486,
      "ERICK": 7487,
      "butter": 7488,
      "morous": 7489,
      "gossi": 7490,
      "pox": 7491,
      "worser": 7492,
      "outrage": 7493,
      "Fore": 7494,
      "sayst": 7495,
      "herein": 7496,
      "produ": 7497,
      "prologue": 7498,
      "dissol": 7499,
      "iction": 7500,
      "vied": 7501,
      "afford": 7502,
      "accursed": 7503,
      "AMUS": 7504,
      "whereon": 7505,
      "serving": 7506,
      "hearse": 7507,
      "Doll": 7508,
      "Dover": 7509,
      "fles": 7510,
      "everlasting": 7511,
      "tainted": 7512,
      "iot": 7513,
      "courteous": 7514,
      "achi": 7515,
      "holding": 7516,
      "ANDRA": 7517,
      "EDERICK": 7518,
      "TIS": 7519,
      "Cawd": 7520,
      "chased": 7521,
      "curtsy": 7522,
      "everywhere": 7523,
      "charg": 7524,
      "charitable": 7525,
      "harmony": 7526,
      "killing": 7527,
      "playing": 7528,
      "confident": 7529,
      "surety": 7530,
      "carriage": 7531,
      "backs": 7532,
      "posing": 7533,
      "reply": 7534,
      "GOBBO": 7535,
      "stops": 7536,
      "Rivers": 7537,
      "powerful": 7538,
      "villainous": 7539,
      "greed": 7540,
      "worthiness": 7541,
      "Sometime": 7542,
      "hangman": 7543,
      "Canterbury": 7544,
      "sickly": 7545,
      "deserts": 7546,
      "persons": 7547,
      "aws": 7548,
      "Boyet": 7549,
      "leading": 7550,
      "sisters": 7551,
      "trusty": 7552,
      "Meet": 7553,
      "rises": 7554,
      "yielding": 7555,
      "remembered": 7556,
      "skull": 7557,
      "blessings": 7558,
      "_Stri": 7559,
      "relish": 7560,
      "destiny": 7561,
      "whel": 7562,
      "PEDANT": 7563,
      "Stands": 7564,
      "joints": 7565,
      "softly": 7566,
      "conqueror": 7567,
      "Silvius": 7568,
      "Friend": 7569,
      "starve": 7570,
      "neighbours": 7571,
      "drag": 7572,
      "departure": 7573,
      "Heavens": 7574,
      "FREDERICK": 7575,
      "pestil": 7576,
      "Adv": 7577,
      "icians": 7578,
      "merely": 7579,
      "hunting": 7580,
      "snatch": 7581,
      "persuaded": 7582,
      "Volumn": 7583,
      "symp": 7584,
      "Longaville": 7585,
      "employment": 7586,
      "puiss": 7587,
      "Spir": 7588,
      "prophet": 7589,
      "perjury": 7590,
      "exceeding": 7591,
      "agreement": 7592,
      "estimation": 7593,
      "control": 7594,
      "Fellow": 7595,
      "spotted": 7596,
      "painting": 7597,
      "candle": 7598,
      "pilgri": 7599,
      "zabeth": 7600,
      "coronation": 7601,
      "correction": 7602,
      "OCTAVIUS": 7603,
      "Pedro": 7604,
      "Sicinius": 7605,
      "CURTIS": 7606,
      "experience": 7607,
      "religious": 7608,
      "Simple": 7609,
      "barbarous": 7610,
      "blossom": 7611,
      "Helicanus": 7612,
      "precedent": 7613,
      "medicine": 7614,
      "ancestors": 7615,
      "bachelor": 7616,
      "Menelaus": 7617,
      "duties": 7618,
      "Audrey": 7619,
      "nuptial": 7620,
      "According": 7621,
      "CINNA": 7622,
      "Elizabeth": 7623,
      "Fifth": 7624,
      "FENTON": 7625,
      "SAMPSON": 7626,
      "infamy": 7627,
      "Cawdor": 7628,
      "Above": 7629,
      "Book": 7630,
      "CANT": 7631,
      "CLEON": 7632,
      "Dion": 7633,
      "Free": 7634,
      "Gain": 7635,
      "Kath": 7636,
      "Light": 7637,
      "Mel": 7638,
      "OOL": 7639,
      "Rut": 7640,
      "Sing": 7641,
      "SCH": 7642,
      "Vi": 7643,
      "VEN": 7644,
      "Vouch": 7645,
      "YZ": 7646,
      "Zounds": 7647,
      "cend": 7648,
      "card": 7649,
      "crows": 7650,
      "eats": 7651,
      "ithou": 7652,
      "kis": 7653,
      "latter": 7654,
      "lute": 7655,
      "mers": 7656,
      "mute": 7657,
      "nun": 7658,
      "nur": 7659,
      "oman": 7660,
      "pir": 7661,
      "tard": 7662,
      "tish": 7663,
      "uish": 7664,
      "zon": 7665,
      "throws": 7666,
      "inate": 7667,
      "ana": 7668,
      "anno": 7669,
      "org": 7670,
      "aring": 7671,
      "arine": 7672,
      "artic": 7673,
      "atta": 7674,
      "states": 7675,
      "rein": 7676,
      "reap": 7677,
      "reproof": 7678,
      "hale": 7679,
      "hack": 7680,
      "chronic": 7681,
      "utmost": 7682,
      "rogues": 7683,
      "web": 7684,
      "soe": 7685,
      "ravish": 7686,
      "uni": 7687,
      "losing": 7688,
      "Thee": 7689,
      "feeds": 7690,
      "female": 7691,
      "maker": 7692,
      "shames": 7693,
      "mankind": 7694,
      "sullen": 7695,
      "ERBURY": 7696,
      "print": 7697,
      "ills": 7698,
      "constru": 7699,
      "mote": 7700,
      "quis": 7701,
      "owner": 7702,
      "sheets": 7703,
      "bliss": 7704,
      "knowest": 7705,
      "Except": 7706,
      "uellen": 7707,
      "Bea": 7708,
      "Beyond": 7709,
      "dispose": 7710,
      "discontent": 7711,
      "dismiss": 7712,
      "arson": 7713,
      "muster": 7714,
      "performed": 7715,
      "pernicious": 7716,
      "mbro": 7717,
      "divers": 7718,
      "expense": 7719,
      "afar": 7720,
      "isement": 7721,
      "brethren": 7722,
      "Angi": 7723,
      "Anjou": 7724,
      "monsieur": 7725,
      "marble": 7726,
      "LAS": 7727,
      "mischance": 7728,
      "counted": 7729,
      "glow": 7730,
      "EDY": 7731,
      "trib": 7732,
      "presume": 7733,
      "Proud": 7734,
      "giant": 7735,
      "chas": 7736,
      "restore": 7737,
      "airs": 7738,
      "meddle": 7739,
      "Armado": 7740,
      "Uncle": 7741,
      "entered": 7742,
      "nearer": 7743,
      "caps": 7744,
      "obsc": 7745,
      "DOUG": 7746,
      "appeal": 7747,
      "painter": 7748,
      "wearing": 7749,
      "strew": 7750,
      "countryman": 7751,
      "deserv": 7752,
      "consort": 7753,
      "crime": 7754,
      "chosen": 7755,
      "salute": 7756,
      "Fluellen": 7757,
      "MAYOR": 7758,
      "surpr": 7759,
      "droop": 7760,
      "ANTIGON": 7761,
      "ladder": 7762,
      "tinct": 7763,
      "speedy": 7764,
      "False": 7765,
      "stirs": 7766,
      "imag": 7767,
      "Pomfret": 7768,
      "Talk": 7769,
      "beginning": 7770,
      "woods": 7771,
      "drift": 7772,
      "understanding": 7773,
      "treasons": 7774,
      "mounted": 7775,
      "executed": 7776,
      "patiently": 7777,
      "delights": 7778,
      "mannerly": 7779,
      "support": 7780,
      "kinsmen": 7781,
      "Phili": 7782,
      "companions": 7783,
      "helm": 7784,
      "changes": 7785,
      "corner": 7786,
      "legions": 7787,
      "persuasion": 7788,
      "CLIFFE": 7789,
      "complete": 7790,
      "winged": 7791,
      "Half": 7792,
      "conjur": 7793,
      "Milford": 7794,
      "shoes": 7795,
      "affected": 7796,
      "cuckoo": 7797,
      "prevented": 7798,
      "tyrann": 7799,
      "pillow": 7800,
      "errand": 7801,
      "Court": 7802,
      "Council": 7803,
      "aloof": 7804,
      "filthy": 7805,
      "Women": 7806,
      "franch": 7807,
      "infected": 7808,
      "lungs": 7809,
      "_Giving": 7810,
      "_Item": 7811,
      "gilded": 7812,
      "Thir": 7813,
      "bereft": 7814,
      "rheum": 7815,
      "deputy": 7816,
      "suffice": 7817,
      "churlish": 7818,
      "Pirithou": 7819,
      "RATCLIFFE": 7820,
      "knocks": 7821,
      "Judas": 7822,
      "wilful": 7823,
      "DIONYZ": 7824,
      "exercise": 7825,
      "PLAYER": 7826,
      "VERG": 7827,
      "URSULA": 7828,
      "Caliban": 7829,
      "integr": 7830,
      "CANTERBURY": 7831,
      "Katharine": 7832,
      "OOLMASTER": 7833,
      "Rutland": 7834,
      "SCHOOLMASTER": 7835,
      "kissed": 7836,
      "Angiers": 7837,
      "DOUGLAS": 7838,
      "ANTIGONUS": 7839,
      "Pirithous": 7840,
      "DIONYZA": 7841,
      "Apri": 7842,
      "Adri": 7843,
      "Base": 7844,
      "Balth": 7845,
      "Ce": 7846,
      "Car": 7847,
      "Cre": 7848,
      "Cut": 7849,
      "EG": 7850,
      "Er": 7851,
      "Ely": 7852,
      "Elean": 7853,
      "Fle": 7854,
      "Fla": 7855,
      "Ful": 7856,
      "GAD": 7857,
      "Hol": 7858,
      "Je": 7859,
      "Lic": 7860,
      "MUS": 7861,
      "Maine": 7862,
      "NCAN": 7863,
      "SAND": 7864,
      "Tear": 7865,
      "Temp": 7866,
      "Wol": 7867,
      "Watch": 7868,
      "YS": 7869,
      "_to": 7870,
      "bows": 7871,
      "block": 7872,
      "coff": 7873,
      "eks": 7874,
      "flock": 7875,
      "iv": 7876,
      "lof": 7877,
      "lam": 7878,
      "lance": 7879,
      "mouse": 7880,
      "messengers": 7881,
      "nut": 7882,
      "pies": 7883,
      "patter": 7884,
      "rish": 7885,
      "rene": 7886,
      "ually": 7887,
      "ÇON": 7888,
      "”;": 7889,
      "oult": 7890,
      "ouder": 7891,
      "infirm": 7892,
      "orter": 7893,
      "isher": 7894,
      "toe": 7895,
      "heinous": 7896,
      "stum": 7897,
      "stake": 7898,
      "meed": 7899,
      "nobody": 7900,
      "rees": 7901,
      "revels": 7902,
      "separ": 7903,
      "ingrat": 7904,
      "leaf": 7905,
      "leather": 7906,
      "lected": 7907,
      "beit": 7908,
      "became": 7909,
      "chose": 7910,
      "asse": 7911,
      "eder": 7912,
      "forc": 7913,
      "roop": 7914,
      "robes": 7915,
      "ourself": 7916,
      "ridge": 7917,
      "advis": 7918,
      "Whence": 7919,
      "coil": 7920,
      "raised": 7921,
      "ested": 7922,
      "ENÇON": 7923,
      "neat": 7924,
      "Topas": 7925,
      "lac": 7926,
      "rue": 7927,
      "ruffi": 7928,
      "constra": 7929,
      "mocks": 7930,
      "holp": 7931,
      "ousins": 7932,
      "ALENÇON": 7933,
      "wolves": 7934,
      "prover": 7935,
      "procure": 7936,
      "ELY": 7937,
      "aux": 7938,
      "perio": 7939,
      "performan": 7940,
      "IRAS": 7941,
      "elbow": 7942,
      "sweeter": 7943,
      "angling": 7944,
      "abund": 7945,
      "description": 7946,
      "grain": 7947,
      "gentleness": 7948,
      "Whereto": 7949,
      "fling": 7950,
      "RIER": 7951,
      "oughs": 7952,
      "baby": 7953,
      "resist": 7954,
      "longs": 7955,
      "DUNCAN": 7956,
      "pregnant": 7957,
      "putting": 7958,
      "pursuit": 7959,
      "Thane": 7960,
      "harms": 7961,
      "welkin": 7962,
      "minded": 7963,
      "confeder": 7964,
      "Prove": 7965,
      "sands": 7966,
      "horrid": 7967,
      "stayed": 7968,
      "tempor": 7969,
      "fellowship": 7970,
      "prais": 7971,
      "brass": 7972,
      "built": 7973,
      "impatience": 7974,
      "grees": 7975,
      "worthiest": 7976,
      "Sometimes": 7977,
      "SHILL": 7978,
      "creant": 7979,
      "penance": 7980,
      "Conf": 7981,
      "Pembro": 7982,
      "growth": 7983,
      "sinane": 7984,
      "attends": 7985,
      "attendants": 7986,
      "leaden": 7987,
      "grove": 7988,
      "crimes": 7989,
      "Lafew": 7990,
      "coloured": 7991,
      "rising": 7992,
      "bells": 7993,
      "drinks": 7994,
      "abomin": 7995,
      "COX": 7996,
      "relent": 7997,
      "thrift": 7998,
      "harmless": 7999
    },
    "merges": [
      [
        "t",
        "h"
      ],
      [
        "e",
        "r"
      ],
      [
        "o",
        "u"
      ],
      [
        "i",
        "n"
      ],
      [
        "a",
        "n"
      ],
      [
        "th",
        "e"
      ],
      [
        "o",
        "r"
      ],
      [
        "i",
        "s"
      ],
      [
        "e",
        "n"
      ],
      [
        "a",
        "r"
      ],
      [
        "a",
        "t"
      ],
      [
        "o",
        "n"
      ],
      [
        "l",
        "l"
      ],
      [
        "e",
        "s"
      ],
      [
        "an",
        "d"
      ],
      [
        "t",
        "o"
      ],
      [
        "h",
        "e"
      ],
      [
        "s",
        "t"
      ],
      [
        "m",
        "e"
      ],
      [
        "y",
        "ou"
      ],
      [
        "n",
        "o"
      ],
      [
        "o",
        "f"
      ],
      [
        "r",
        "e"
      ],
      [
        "h",
        "a"
      ],
      [
        "s",
        "e"
      ],
      [
        "i",
        "t"
      ],
      [
        "v",
        "e"
      ],
      [
        "in",
        "g"
      ],
      [
        "l",
        "e"
      ],
      [
        "w",
        "i"
      ],
      [
        "b",
        "e"
      ],
      [
        "c",
        "h"
      ],
      [
        "c",
        "e"
      ],
      [
        "a",
        "s"
      ],
      [
        "o",
        "w"
      ],
      [
        "m",
        "y"
      ],
      [
        "e",
        "d"
      ],
      [
        "h",
        "i"
      ],
      [
        "f",
        "or"
      ],
      [
        "n",
        "d"
      ],
      [
        "l",
        "d"
      ],
      [
        "a",
        "y"
      ],
      [
        "er",
        "e"
      ],
      [
        "i",
        "r"
      ],
      [
        "u",
        "t"
      ],
      [
        "r",
        "o"
      ],
      [
        "T",
        "h"
      ],
      [
        "no",
        "t"
      ],
      [
        "g",
        "h"
      ],
      [
        "l",
        "i"
      ],
      [
        "d",
        "e"
      ],
      [
        "w",
        "e"
      ],
      [
        "th",
        "at"
      ],
      [
        "k",
        "e"
      ],
      [
        "o",
        "o"
      ],
      [
        "wi",
        "th"
      ],
      [
        "A",
        "nd"
      ],
      [
        "ou",
        "r"
      ],
      [
        "t",
        "er"
      ],
      [
        "a",
        "l"
      ],
      [
        "r",
        "i"
      ],
      [
        "u",
        "s"
      ],
      [
        "s",
        "o"
      ],
      [
        "w",
        "h"
      ],
      [
        "a",
        "d"
      ],
      [
        "en",
        "t"
      ],
      [
        "W",
        "h"
      ],
      [
        "e",
        "t"
      ],
      [
        "h",
        "is"
      ],
      [
        "you",
        "r"
      ],
      [
        "c",
        "o"
      ],
      [
        "r",
        "a"
      ],
      [
        "th",
        "ou"
      ],
      [
        "a",
        "ll"
      ],
      [
        "d",
        "o"
      ],
      [
        "th",
        "er"
      ],
      [
        "u",
        "n"
      ],
      [
        "gh",
        "t"
      ],
      [
        "u",
        "r"
      ],
      [
        "hi",
        "m"
      ],
      [
        "l",
        "y"
      ],
      [
        "th",
        "is"
      ],
      [
        "ha",
        "ve"
      ],
      [
        "v",
        "er"
      ],
      [
        "l",
        "o"
      ],
      [
        "T",
        "he"
      ],
      [
        "a",
        "m"
      ],
      [
        "t",
        "i"
      ],
      [
        "es",
        "s"
      ],
      [
        "or",
        "d"
      ],
      [
        "ou",
        "ld"
      ],
      [
        "a",
        "in"
      ],
      [
        "f",
        "e"
      ],
      [
        "i",
        "d"
      ],
      [
        "wi",
        "ll"
      ],
      [
        "ar",
        "e"
      ],
      [
        "h",
        "er"
      ],
      [
        "es",
        "t"
      ],
      [
        "E",
        "N"
      ],
      [
        "c",
        "k"
      ],
      [
        "p",
        "e"
      ],
      [
        "m",
        "a"
      ],
      [
        "no",
        "w"
      ],
      [
        "oo",
        "d"
      ],
      [
        "s",
        "ha"
      ],
      [
        "m",
        "an"
      ],
      [
        "n",
        "e"
      ],
      [
        "A",
        "N"
      ],
      [
        "g",
        "e"
      ],
      [
        "th",
        "y"
      ],
      [
        "f",
        "a"
      ],
      [
        "on",
        "e"
      ],
      [
        "s",
        "u"
      ],
      [
        "en",
        "d"
      ],
      [
        "U",
        "S"
      ],
      [
        "E",
        "R"
      ],
      [
        "A",
        "R"
      ],
      [
        "b",
        "ut"
      ],
      [
        "I",
        "N"
      ],
      [
        "T",
        "o"
      ],
      [
        "l",
        "a"
      ],
      [
        "ar",
        "t"
      ],
      [
        "ar",
        "d"
      ],
      [
        "the",
        "e"
      ],
      [
        "r",
        "u"
      ],
      [
        "s",
        "h"
      ],
      [
        "b",
        "y"
      ],
      [
        "p",
        "r"
      ],
      [
        "sha",
        "ll"
      ],
      [
        "m",
        "or"
      ],
      [
        "E",
        "S"
      ],
      [
        "i",
        "ll"
      ],
      [
        "ro",
        "m"
      ],
      [
        "s",
        "i"
      ],
      [
        "Th",
        "at"
      ],
      [
        "c",
        "on"
      ],
      [
        "u",
        "p"
      ],
      [
        "g",
        "o"
      ],
      [
        "p",
        "o"
      ],
      [
        "m",
        "o"
      ],
      [
        "O",
        "N"
      ],
      [
        "co",
        "m"
      ],
      [
        "an",
        "t"
      ],
      [
        "in",
        "e"
      ],
      [
        "B",
        "ut"
      ],
      [
        "h",
        "o"
      ],
      [
        "E",
        "n"
      ],
      [
        "se",
        "l"
      ],
      [
        "m",
        "u"
      ],
      [
        "i",
        "ght"
      ],
      [
        "i",
        "on"
      ],
      [
        "t",
        "e"
      ],
      [
        "a",
        "k"
      ],
      [
        "S",
        "T"
      ],
      [
        "q",
        "u"
      ],
      [
        "i",
        "l"
      ],
      [
        "ou",
        "s"
      ],
      [
        "in",
        "d"
      ],
      [
        "Wh",
        "at"
      ],
      [
        "c",
        "t"
      ],
      [
        "ow",
        "n"
      ],
      [
        "b",
        "o"
      ],
      [
        "s",
        "he"
      ],
      [
        "i",
        "f"
      ],
      [
        "b",
        "le"
      ],
      [
        "O",
        "R"
      ],
      [
        "er",
        "s"
      ],
      [
        "l",
        "ord"
      ],
      [
        "g",
        "ood"
      ],
      [
        "lo",
        "ve"
      ],
      [
        "w",
        "or"
      ],
      [
        "ou",
        "t"
      ],
      [
        "hi",
        "ch"
      ],
      [
        "H",
        "e"
      ],
      [
        "s",
        "a"
      ],
      [
        "v",
        "en"
      ],
      [
        "on",
        "g"
      ],
      [
        "f",
        "rom"
      ],
      [
        "w",
        "as"
      ],
      [
        "r",
        "y"
      ],
      [
        "wh",
        "at"
      ],
      [
        "a",
        "st"
      ],
      [
        "F",
        "or"
      ],
      [
        "b",
        "l"
      ],
      [
        "mor",
        "e"
      ],
      [
        "k",
        "now"
      ],
      [
        "we",
        "ll"
      ],
      [
        "w",
        "ould"
      ],
      [
        "A",
        "L"
      ],
      [
        "E",
        "x"
      ],
      [
        "the",
        "m"
      ],
      [
        "i",
        "ve"
      ],
      [
        "c",
        "an"
      ],
      [
        "En",
        "ter"
      ],
      [
        "O",
        "L"
      ],
      [
        "at",
        "e"
      ],
      [
        "a",
        "p"
      ],
      [
        "le",
        "t"
      ],
      [
        "the",
        "ir"
      ],
      [
        "co",
        "me"
      ],
      [
        "sel",
        "f"
      ],
      [
        "se",
        "e"
      ],
      [
        "a",
        "g"
      ],
      [
        "i",
        "e"
      ],
      [
        "en",
        "ce"
      ],
      [
        "e",
        "p"
      ],
      [
        "the",
        "y"
      ],
      [
        "th",
        "ere"
      ],
      [
        "u",
        "l"
      ],
      [
        "a",
        "th"
      ],
      [
        "li",
        "ke"
      ],
      [
        "th",
        "an"
      ],
      [
        "t",
        "a"
      ],
      [
        "o",
        "me"
      ],
      [
        "_",
        "Ex"
      ],
      [
        "s",
        "ay"
      ],
      [
        "s",
        "ir"
      ],
      [
        "in",
        "k"
      ],
      [
        "w",
        "o"
      ],
      [
        "the",
        "n"
      ],
      [
        "m",
        "p"
      ],
      [
        "for",
        "e"
      ],
      [
        "L",
        "E"
      ],
      [
        "T",
        "H"
      ],
      [
        "I",
        "O"
      ],
      [
        "u",
        "re"
      ],
      [
        "h",
        "ere"
      ],
      [
        "Y",
        "ou"
      ],
      [
        "v",
        "es"
      ],
      [
        "M",
        "y"
      ],
      [
        "is",
        "h"
      ],
      [
        "N",
        "o"
      ],
      [
        "I",
        "f"
      ],
      [
        "i",
        "th"
      ],
      [
        "an",
        "ce"
      ],
      [
        "W",
        "e"
      ],
      [
        "a",
        "ve"
      ],
      [
        "w",
        "ay"
      ],
      [
        "t",
        "ru"
      ],
      [
        "ou",
        "nd"
      ],
      [
        "th",
        "ing"
      ],
      [
        "ha",
        "th"
      ],
      [
        "m",
        "en"
      ],
      [
        "p",
        "ro"
      ],
      [
        "E",
        "L"
      ],
      [
        "IN",
        "G"
      ],
      [
        "s",
        "p"
      ],
      [
        "a",
        "u"
      ],
      [
        "to",
        "o"
      ],
      [
        "s",
        "pe"
      ],
      [
        "u",
        "e"
      ],
      [
        "C",
        "H"
      ],
      [
        "re",
        "at"
      ],
      [
        "B",
        "e"
      ],
      [
        "sh",
        "ould"
      ],
      [
        "d",
        "id"
      ],
      [
        "m",
        "ay"
      ],
      [
        "d",
        "is"
      ],
      [
        "A",
        "s"
      ],
      [
        "R",
        "O"
      ],
      [
        "wh",
        "o"
      ],
      [
        "w",
        "ere"
      ],
      [
        "ar",
        "s"
      ],
      [
        "oo",
        "k"
      ],
      [
        "ma",
        "ke"
      ],
      [
        "i",
        "c"
      ],
      [
        "I",
        "A"
      ],
      [
        "r",
        "ow"
      ],
      [
        "w",
        "hich"
      ],
      [
        "so",
        "me"
      ],
      [
        "up",
        "on"
      ],
      [
        "G",
        "o"
      ],
      [
        "mu",
        "st"
      ],
      [
        "K",
        "ING"
      ],
      [
        "p",
        "er"
      ],
      [
        "ver",
        "y"
      ],
      [
        "it",
        "y"
      ],
      [
        "p",
        "le"
      ],
      [
        "I",
        "R"
      ],
      [
        "m",
        "b"
      ],
      [
        "un",
        "t"
      ],
      [
        "I",
        "n"
      ],
      [
        "ha",
        "d"
      ],
      [
        "e",
        "y"
      ],
      [
        "v",
        "i"
      ],
      [
        "ou",
        "n"
      ],
      [
        "o",
        "ther"
      ],
      [
        "d",
        "i"
      ],
      [
        "L",
        "O"
      ],
      [
        "I",
        "US"
      ],
      [
        "w",
        "ord"
      ],
      [
        "e",
        "x"
      ],
      [
        "h",
        "and"
      ],
      [
        "S",
        "o"
      ],
      [
        "he",
        "art"
      ],
      [
        "h",
        "on"
      ],
      [
        "su",
        "ch"
      ],
      [
        "d",
        "ay"
      ],
      [
        "th",
        "ink"
      ],
      [
        "of",
        "f"
      ],
      [
        "Th",
        "ou"
      ],
      [
        "ti",
        "on"
      ],
      [
        "e",
        "l"
      ],
      [
        "a",
        "me"
      ],
      [
        "Th",
        "is"
      ],
      [
        "wh",
        "en"
      ],
      [
        "m",
        "ent"
      ],
      [
        "c",
        "i"
      ],
      [
        "ti",
        "me"
      ],
      [
        "y",
        "et"
      ],
      [
        "ag",
        "ain"
      ],
      [
        "a",
        "ge"
      ],
      [
        "H",
        "ow"
      ],
      [
        "I",
        "I"
      ],
      [
        "K",
        "ing"
      ],
      [
        "en",
        "e"
      ],
      [
        "a",
        "f"
      ],
      [
        "s",
        "we"
      ],
      [
        "ll",
        "ow"
      ],
      [
        "is",
        "e"
      ],
      [
        "a",
        "c"
      ],
      [
        "Wh",
        "y"
      ],
      [
        "mo",
        "st"
      ],
      [
        "W",
        "ith"
      ],
      [
        "an",
        "g"
      ],
      [
        "n",
        "ess"
      ],
      [
        "spe",
        "ak"
      ],
      [
        "p",
        "l"
      ],
      [
        "an",
        "y"
      ],
      [
        "f",
        "o"
      ],
      [
        "b",
        "re"
      ],
      [
        "f",
        "ri"
      ],
      [
        "ur",
        "n"
      ],
      [
        "A",
        "n"
      ],
      [
        "h",
        "ow"
      ],
      [
        "Wh",
        "o"
      ],
      [
        "m",
        "ine"
      ],
      [
        "O",
        "f"
      ],
      [
        "a",
        "b"
      ],
      [
        "ta",
        "ke"
      ],
      [
        "the",
        "se"
      ],
      [
        "an",
        "s"
      ],
      [
        "g",
        "ive"
      ],
      [
        "fa",
        "ther"
      ],
      [
        "AN",
        "T"
      ],
      [
        "d",
        "es"
      ],
      [
        "m",
        "on"
      ],
      [
        "ad",
        "y"
      ],
      [
        "n",
        "ight"
      ],
      [
        "t",
        "r"
      ],
      [
        "k",
        "ing"
      ],
      [
        "AR",
        "D"
      ],
      [
        "A",
        "M"
      ],
      [
        "e",
        "ar"
      ],
      [
        "g",
        "reat"
      ],
      [
        "m",
        "ar"
      ],
      [
        "f",
        "ul"
      ],
      [
        "l",
        "and"
      ],
      [
        "wh",
        "ere"
      ],
      [
        "fa",
        "ir"
      ],
      [
        "he",
        "a"
      ],
      [
        "I",
        "C"
      ],
      [
        "a",
        "se"
      ],
      [
        "g",
        "ra"
      ],
      [
        "at",
        "ion"
      ],
      [
        "b",
        "ro"
      ],
      [
        "e",
        "unt"
      ],
      [
        "I",
        "t"
      ],
      [
        "te",
        "ll"
      ],
      [
        "fri",
        "end"
      ],
      [
        "t",
        "y"
      ],
      [
        "in",
        "ce"
      ],
      [
        "EN",
        "E"
      ],
      [
        "g",
        "ent"
      ],
      [
        "p",
        "art"
      ],
      [
        "Th",
        "ere"
      ],
      [
        "ES",
        "S"
      ],
      [
        "or",
        "t"
      ],
      [
        "s",
        "er"
      ],
      [
        "I",
        "L"
      ],
      [
        "mu",
        "ch"
      ],
      [
        "re",
        "e"
      ],
      [
        "g",
        "n"
      ],
      [
        "m",
        "s"
      ],
      [
        "m",
        "er"
      ],
      [
        "st",
        "r"
      ],
      [
        "L",
        "et"
      ],
      [
        "he",
        "ar"
      ],
      [
        "l",
        "ook"
      ],
      [
        "L",
        "A"
      ],
      [
        "ne",
        "ver"
      ],
      [
        "C",
        "ome"
      ],
      [
        "I",
        "s"
      ],
      [
        "a",
        "ce"
      ],
      [
        "i",
        "es"
      ],
      [
        "_Ex",
        "eunt"
      ],
      [
        "m",
        "is"
      ],
      [
        "A",
        "T"
      ],
      [
        "s",
        "c"
      ],
      [
        "u",
        "nd"
      ],
      [
        "_Ex",
        "it"
      ],
      [
        "W",
        "hich"
      ],
      [
        "bl",
        "ood"
      ],
      [
        "r",
        "ing"
      ],
      [
        "u",
        "ll"
      ],
      [
        "D",
        "o"
      ],
      [
        "l",
        "t"
      ],
      [
        "it",
        "e"
      ],
      [
        "li",
        "fe"
      ],
      [
        "Wh",
        "ere"
      ],
      [
        "l",
        "ess"
      ],
      [
        "u",
        "st"
      ],
      [
        "de",
        "ath"
      ],
      [
        "re",
        "t"
      ],
      [
        "re",
        "d"
      ],
      [
        "S",
        "C"
      ],
      [
        "do",
        "th"
      ],
      [
        "U",
        "C"
      ],
      [
        "f",
        "l"
      ],
      [
        "hon",
        "our"
      ],
      [
        "f",
        "i"
      ],
      [
        "t",
        "le"
      ],
      [
        "E",
        "T"
      ],
      [
        "R",
        "I"
      ],
      [
        "Wh",
        "en"
      ],
      [
        "e",
        "ver"
      ],
      [
        "w",
        "ard"
      ],
      [
        "be",
        "t"
      ],
      [
        "gent",
        "le"
      ],
      [
        "B",
        "y"
      ],
      [
        "s",
        "on"
      ],
      [
        "t",
        "ain"
      ],
      [
        "c",
        "oun"
      ],
      [
        "ou",
        "l"
      ],
      [
        "S",
        "ir"
      ],
      [
        "o",
        "m"
      ],
      [
        "w",
        "r"
      ],
      [
        "c",
        "es"
      ],
      [
        "O",
        "r"
      ],
      [
        "st",
        "er"
      ],
      [
        "li",
        "e"
      ],
      [
        "ha",
        "st"
      ],
      [
        "f",
        "oo"
      ],
      [
        "o",
        "ld"
      ],
      [
        "on",
        "d"
      ],
      [
        "as",
        "s"
      ],
      [
        "p",
        "p"
      ],
      [
        "t",
        "is"
      ],
      [
        "ou",
        "gh"
      ],
      [
        "A",
        "C"
      ],
      [
        "i",
        "o"
      ],
      [
        "L",
        "ord"
      ],
      [
        "N",
        "ow"
      ],
      [
        "se",
        "d"
      ],
      [
        "c",
        "our"
      ],
      [
        "i",
        "ce"
      ],
      [
        "st",
        "and"
      ],
      [
        "Go",
        "d"
      ],
      [
        "c",
        "all"
      ],
      [
        "a",
        "ch"
      ],
      [
        "t",
        "s"
      ],
      [
        "or",
        "n"
      ],
      [
        "fe",
        "ar"
      ],
      [
        "F",
        "F"
      ],
      [
        "SC",
        "ENE"
      ],
      [
        "hea",
        "ven"
      ],
      [
        "ma",
        "de"
      ],
      [
        "S",
        "c"
      ],
      [
        "S",
        "E"
      ],
      [
        "M",
        "ar"
      ],
      [
        "t",
        "end"
      ],
      [
        "swe",
        "et"
      ],
      [
        "ou",
        "se"
      ],
      [
        "C",
        "A"
      ],
      [
        "tru",
        "e"
      ],
      [
        "ne",
        "w"
      ],
      [
        "c",
        "he"
      ],
      [
        "ey",
        "es"
      ],
      [
        "P",
        "H"
      ],
      [
        "ho",
        "ld"
      ],
      [
        "m",
        "ad"
      ],
      [
        "g",
        "u"
      ],
      [
        "AN",
        "D"
      ],
      [
        "v",
        "ing"
      ],
      [
        "he",
        "ad"
      ],
      [
        "r",
        "own"
      ],
      [
        "u",
        "m"
      ],
      [
        "g",
        "l"
      ],
      [
        "can",
        "not"
      ],
      [
        "p",
        "la"
      ],
      [
        "E",
        "D"
      ],
      [
        "F",
        "IR"
      ],
      [
        "FIR",
        "ST"
      ],
      [
        "n",
        "or"
      ],
      [
        "u",
        "ke"
      ],
      [
        "p",
        "ri"
      ],
      [
        "v",
        "o"
      ],
      [
        "H",
        "ere"
      ],
      [
        "b",
        "a"
      ],
      [
        "wor",
        "ld"
      ],
      [
        "Th",
        "en"
      ],
      [
        "w",
        "ar"
      ],
      [
        "U",
        "R"
      ],
      [
        "pr",
        "ay"
      ],
      [
        "r",
        "es"
      ],
      [
        "le",
        "d"
      ],
      [
        "t",
        "ri"
      ],
      [
        "a",
        "way"
      ],
      [
        "t",
        "ed"
      ],
      [
        "li",
        "ve"
      ],
      [
        "T",
        "I"
      ],
      [
        "Sc",
        "ene"
      ],
      [
        "thou",
        "ght"
      ],
      [
        "pr",
        "es"
      ],
      [
        "be",
        "en"
      ],
      [
        "d",
        "one"
      ],
      [
        "Y",
        "our"
      ],
      [
        "l",
        "ong"
      ],
      [
        "Q",
        "U"
      ],
      [
        "o",
        "p"
      ],
      [
        "be",
        "ar"
      ],
      [
        "T",
        "is"
      ],
      [
        "n",
        "ame"
      ],
      [
        "D",
        "U"
      ],
      [
        "A",
        "y"
      ],
      [
        "F",
        "r"
      ],
      [
        "s",
        "hi"
      ],
      [
        "f",
        "ir"
      ],
      [
        "p",
        "re"
      ],
      [
        "for",
        "t"
      ],
      [
        "l",
        "es"
      ],
      [
        "d",
        "s"
      ],
      [
        "t",
        "wo"
      ],
      [
        "t",
        "ra"
      ],
      [
        "com",
        "es"
      ],
      [
        "d",
        "own"
      ],
      [
        ".",
        "]"
      ],
      [
        "S",
        "he"
      ],
      [
        "a",
        "ble"
      ],
      [
        "m",
        "ight"
      ],
      [
        "k",
        "s"
      ],
      [
        "or",
        "e"
      ],
      [
        "ow",
        "er"
      ],
      [
        "a",
        "ke"
      ],
      [
        "li",
        "ght"
      ],
      [
        "be",
        "fore"
      ],
      [
        "E",
        "M"
      ],
      [
        "se",
        "t"
      ],
      [
        "bro",
        "ther"
      ],
      [
        "j",
        "o"
      ],
      [
        "t",
        "on"
      ],
      [
        "mb",
        "er"
      ],
      [
        "gh",
        "ter"
      ],
      [
        "d",
        "y"
      ],
      [
        "i",
        "gn"
      ],
      [
        "The",
        "y"
      ],
      [
        "p",
        "ut"
      ],
      [
        "D",
        "uke"
      ],
      [
        "h",
        "ouse"
      ],
      [
        "no",
        "ble"
      ],
      [
        "le",
        "ave"
      ],
      [
        "EN",
        "T"
      ],
      [
        "de",
        "ed"
      ],
      [
        "s",
        "s"
      ],
      [
        "e",
        "f"
      ],
      [
        "t",
        "en"
      ],
      [
        "i",
        "m"
      ],
      [
        "at",
        "ter"
      ],
      [
        "p",
        "ur"
      ],
      [
        "P",
        "r"
      ],
      [
        "o",
        "se"
      ],
      [
        "H",
        "is"
      ],
      [
        "g",
        "r"
      ],
      [
        "u",
        "se"
      ],
      [
        "th",
        "us"
      ],
      [
        "l",
        "ady"
      ],
      [
        "OR",
        "D"
      ],
      [
        "y",
        "e"
      ],
      [
        "c",
        "ould"
      ],
      [
        "C",
        "E"
      ],
      [
        "S",
        "ha"
      ],
      [
        "foo",
        "l"
      ],
      [
        "g",
        "i"
      ],
      [
        "an",
        "ge"
      ],
      [
        "C",
        "a"
      ],
      [
        "re",
        "as"
      ],
      [
        "po",
        "or"
      ],
      [
        "de",
        "ad"
      ],
      [
        "C",
        "ON"
      ],
      [
        "t",
        "ent"
      ],
      [
        "c",
        "ha"
      ],
      [
        "si",
        "de"
      ],
      [
        "ri",
        "ght"
      ],
      [
        "c",
        "au"
      ],
      [
        "sh",
        "ow"
      ],
      [
        "j",
        "e"
      ],
      [
        "bet",
        "ter"
      ],
      [
        "be",
        "ing"
      ],
      [
        "w",
        "it"
      ],
      [
        "We",
        "ll"
      ],
      [
        "s",
        "oul"
      ],
      [
        "com",
        "p"
      ],
      [
        "ke",
        "ep"
      ],
      [
        "ing",
        "s"
      ],
      [
        "w",
        "er"
      ],
      [
        "f",
        "ind"
      ],
      [
        "r",
        "est"
      ],
      [
        "i",
        "ck"
      ],
      [
        "es",
        "e"
      ],
      [
        "o",
        "l"
      ],
      [
        "K",
        "E"
      ],
      [
        "l",
        "it"
      ],
      [
        "c",
        "l"
      ],
      [
        "at",
        "ch"
      ],
      [
        "I",
        "S"
      ],
      [
        "f",
        "t"
      ],
      [
        "i",
        "ld"
      ],
      [
        "p",
        "s"
      ],
      [
        "in",
        "to"
      ],
      [
        "st",
        "ill"
      ],
      [
        "ST",
        "A"
      ],
      [
        "de",
        "ar"
      ],
      [
        "bo",
        "th"
      ],
      [
        "c",
        "tion"
      ],
      [
        "und",
        "er"
      ],
      [
        "f",
        "ull"
      ],
      [
        "c",
        "ur"
      ],
      [
        "or",
        "s"
      ],
      [
        "G",
        "ood"
      ],
      [
        "O",
        "F"
      ],
      [
        "b",
        "ra"
      ],
      [
        "be",
        "g"
      ],
      [
        "N",
        "or"
      ],
      [
        "ma",
        "ster"
      ],
      [
        "no",
        "thing"
      ],
      [
        "man",
        "y"
      ],
      [
        "W",
        "ill"
      ],
      [
        "e",
        "very"
      ],
      [
        "c",
        "y"
      ],
      [
        "ch",
        "ar"
      ],
      [
        "M",
        "AR"
      ],
      [
        "un",
        "e"
      ],
      [
        "n",
        "g"
      ],
      [
        "pla",
        "ce"
      ],
      [
        "au",
        "ghter"
      ],
      [
        "cau",
        "se"
      ],
      [
        "w",
        "hi"
      ],
      [
        "B",
        "ER"
      ],
      [
        "k",
        "ind"
      ],
      [
        "g",
        "ri"
      ],
      [
        "f",
        "all"
      ],
      [
        "p",
        "ar"
      ],
      [
        "wi",
        "fe"
      ],
      [
        "R",
        "ome"
      ],
      [
        "n",
        "at"
      ],
      [
        "u",
        "ck"
      ],
      [
        "tr",
        "ess"
      ],
      [
        "R",
        "o"
      ],
      [
        "in",
        "s"
      ],
      [
        "d",
        "ie"
      ],
      [
        "k",
        "es"
      ],
      [
        "d",
        "en"
      ],
      [
        "t",
        "al"
      ],
      [
        "t",
        "ong"
      ],
      [
        "fa",
        "ce"
      ],
      [
        "ey",
        "e"
      ],
      [
        "re",
        "ad"
      ],
      [
        "ti",
        "ll"
      ],
      [
        "my",
        "self"
      ],
      [
        "our",
        "s"
      ],
      [
        "A",
        "l"
      ],
      [
        "d",
        "aughter"
      ],
      [
        "v",
        "ant"
      ],
      [
        "RI",
        "CH"
      ],
      [
        "Th",
        "an"
      ],
      [
        "I",
        "AN"
      ],
      [
        "N",
        "ay"
      ],
      [
        "wo",
        "man"
      ],
      [
        "reas",
        "on"
      ],
      [
        "l",
        "p"
      ],
      [
        "R",
        "U"
      ],
      [
        "a",
        "ir"
      ],
      [
        "com",
        "m"
      ],
      [
        "H",
        "er"
      ],
      [
        "ie",
        "ld"
      ],
      [
        "you",
        "ng"
      ],
      [
        "RICH",
        "ARD"
      ],
      [
        "it",
        "s"
      ],
      [
        "thou",
        "gh"
      ],
      [
        "lit",
        "tle"
      ],
      [
        "u",
        "d"
      ],
      [
        "fo",
        "llow"
      ],
      [
        "h",
        "ar"
      ],
      [
        "th",
        "ose"
      ],
      [
        "H",
        "AM"
      ],
      [
        "R",
        "e"
      ],
      [
        "i",
        "re"
      ],
      [
        "No",
        "t"
      ],
      [
        "word",
        "s"
      ],
      [
        "S",
        "S"
      ],
      [
        "p",
        "t"
      ],
      [
        "LE",
        "T"
      ],
      [
        "SE",
        "CON"
      ],
      [
        "fir",
        "st"
      ],
      [
        "SECON",
        "D"
      ],
      [
        "ou",
        "ght"
      ],
      [
        "en",
        "g"
      ],
      [
        "IN",
        "E"
      ],
      [
        "R",
        "Y"
      ],
      [
        "b",
        "est"
      ],
      [
        "f",
        "f"
      ],
      [
        "is",
        "on"
      ],
      [
        "B",
        "E"
      ],
      [
        "E",
        "EN"
      ],
      [
        "d",
        "er"
      ],
      [
        "i",
        "us"
      ],
      [
        "af",
        "ter"
      ],
      [
        "ra",
        "w"
      ],
      [
        "Sha",
        "ll"
      ],
      [
        "J",
        "o"
      ],
      [
        "i",
        "ther"
      ],
      [
        "s",
        "ent"
      ],
      [
        "we",
        "l"
      ],
      [
        "g",
        "ar"
      ],
      [
        "n",
        "ing"
      ],
      [
        "v",
        "il"
      ],
      [
        "me",
        "d"
      ],
      [
        "e",
        "m"
      ],
      [
        "k",
        "ill"
      ],
      [
        "b",
        "id"
      ],
      [
        "b",
        "ring"
      ],
      [
        "b",
        "er"
      ],
      [
        "g",
        "one"
      ],
      [
        "QU",
        "EEN"
      ],
      [
        "bo",
        "y"
      ],
      [
        "m",
        "ind"
      ],
      [
        "es",
        "ar"
      ],
      [
        "friend",
        "s"
      ],
      [
        "s",
        "le"
      ],
      [
        "him",
        "self"
      ],
      [
        "STA",
        "FF"
      ],
      [
        "mo",
        "ther"
      ],
      [
        "M",
        "AN"
      ],
      [
        "U",
        "L"
      ],
      [
        "th",
        "ine"
      ],
      [
        "_",
        "A"
      ],
      [
        "v",
        "ir"
      ],
      [
        "be",
        "d"
      ],
      [
        "Y",
        "et"
      ],
      [
        "en",
        "ch"
      ],
      [
        "for",
        "th"
      ],
      [
        "pl",
        "ay"
      ],
      [
        "F",
        "AL"
      ],
      [
        "FAL",
        "STAFF"
      ],
      [
        "W",
        "N"
      ],
      [
        "again",
        "st"
      ],
      [
        "r",
        "an"
      ],
      [
        "Ca",
        "esar"
      ],
      [
        ".",
        "—"
      ],
      [
        "H",
        "ave"
      ],
      [
        "DU",
        "KE"
      ],
      [
        "shi",
        "p"
      ],
      [
        "con",
        "f"
      ],
      [
        "A",
        "t"
      ],
      [
        "P",
        "ro"
      ],
      [
        "s",
        "and"
      ],
      [
        "c",
        "lo"
      ],
      [
        "ut",
        "y"
      ],
      [
        "la",
        "ck"
      ],
      [
        "in",
        "ess"
      ],
      [
        "Th",
        "y"
      ],
      [
        "gra",
        "ce"
      ],
      [
        "I",
        "V"
      ],
      [
        "L",
        "UC"
      ],
      [
[...]
